{
  "version": "1.0",
  "truncation": null,
  "padding": null,
  "added_tokens": [
    {
      "id": 0,
      "content": "<pad>",
      "single_word": false,
      "lstrip": false,
      "rstrip": false,
      "normalized": false,
      "special": true
    },
    {
      "id": 1,
      "content": "<unk>",
      "single_word": false,
      "lstrip": false,
      "rstrip": false,
      "normalized": false,
      "special": true
    },
    {
      "id": 2,
      "content": "<bos>",
      "single_word": false,
      "lstrip": false,
      "rstrip": false,
      "normalized": false,
      "special": true
    },
    {
      "id": 3,
      "content": "<eos>",
      "single_word": false,
      "lstrip": false,
      "rstrip": false,
      "normalized": false,
      "special": true
    }
  ],
  "normalizer": {
    "type": "NFKC"
  },
  "pre_tokenizer": {
    "type": "ByteLevel",
    "add_prefix_space": false,
    "trim_offsets": true,
    "use_regex": true
  },
  "post_processor": null,
  "decoder": {
    "type": "ByteLevel",
    "add_prefix_space": true,
    "trim_offsets": true,
    "use_regex": true
  },
  "model": {
    "type": "BPE",
    "dropout": null,
    "unk_token": "<unk>",
    "continuing_subword_prefix": null,
    "end_of_word_suffix": null,
    "fuse_unk": false,
    "byte_fallback": false,
    "ignore_merges": false,
    "vocab": {
      "<pad>": 0,
      "<unk>": 1,
      "<bos>": 2,
      "<eos>": 3,
      "!": 4,
      "\"": 5,
      "#": 6,
      "$": 7,
      "%": 8,
      "&": 9,
      "'": 10,
      "(": 11,
      ")": 12,
      "*": 13,
      "+": 14,
      ",": 15,
      "-": 16,
      ".": 17,
      "/": 18,
      "0": 19,
      "1": 20,
      "2": 21,
      "3": 22,
      "4": 23,
      "5": 24,
      "6": 25,
      "7": 26,
      "8": 27,
      "9": 28,
      ":": 29,
      ";": 30,
      "<": 31,
      "=": 32,
      ">": 33,
      "?": 34,
      "@": 35,
      "A": 36,
      "B": 37,
      "C": 38,
      "D": 39,
      "E": 40,
      "F": 41,
      "G": 42,
      "H": 43,
      "I": 44,
      "J": 45,
      "K": 46,
      "L": 47,
      "M": 48,
      "N": 49,
      "O": 50,
      "P": 51,
      "Q": 52,
      "R": 53,
      "S": 54,
      "T": 55,
      "U": 56,
      "V": 57,
      "W": 58,
      "X": 59,
      "Y": 60,
      "Z": 61,
      "[": 62,
      "\\": 63,
      "]": 64,
      "^": 65,
      "_": 66,
      "`": 67,
      "a": 68,
      "b": 69,
      "c": 70,
      "d": 71,
      "e": 72,
      "f": 73,
      "g": 74,
      "h": 75,
      "i": 76,
      "j": 77,
      "k": 78,
      "l": 79,
      "m": 80,
      "n": 81,
      "o": 82,
      "p": 83,
      "q": 84,
      "r": 85,
      "s": 86,
      "t": 87,
      "u": 88,
      "v": 89,
      "w": 90,
      "x": 91,
      "y": 92,
      "z": 93,
      "{": 94,
      "|": 95,
      "}": 96,
      "~": 97,
      "¡": 98,
      "¢": 99,
      "£": 100,
      "¤": 101,
      "¥": 102,
      "¦": 103,
      "§": 104,
      "¨": 105,
      "©": 106,
      "ª": 107,
      "«": 108,
      "¬": 109,
      "®": 110,
      "¯": 111,
      "°": 112,
      "±": 113,
      "²": 114,
      "³": 115,
      "´": 116,
      "µ": 117,
      "¶": 118,
      "·": 119,
      "¸": 120,
      "¹": 121,
      "º": 122,
      "»": 123,
      "¼": 124,
      "½": 125,
      "¾": 126,
      "¿": 127,
      "À": 128,
      "Á": 129,
      "Â": 130,
      "Ã": 131,
      "Ä": 132,
      "Å": 133,
      "Æ": 134,
      "Ç": 135,
      "È": 136,
      "É": 137,
      "Ê": 138,
      "Ë": 139,
      "Ì": 140,
      "Í": 141,
      "Î": 142,
      "Ï": 143,
      "Ð": 144,
      "Ñ": 145,
      "Ò": 146,
      "Ó": 147,
      "Ô": 148,
      "Õ": 149,
      "Ö": 150,
      "×": 151,
      "Ø": 152,
      "Ù": 153,
      "Ú": 154,
      "Û": 155,
      "Ü": 156,
      "Ý": 157,
      "Þ": 158,
      "ß": 159,
      "à": 160,
      "á": 161,
      "â": 162,
      "ã": 163,
      "ä": 164,
      "å": 165,
      "æ": 166,
      "ç": 167,
      "è": 168,
      "é": 169,
      "ê": 170,
      "ë": 171,
      "ì": 172,
      "í": 173,
      "î": 174,
      "ï": 175,
      "ð": 176,
      "ñ": 177,
      "ò": 178,
      "ó": 179,
      "ô": 180,
      "õ": 181,
      "ö": 182,
      "÷": 183,
      "ø": 184,
      "ù": 185,
      "ú": 186,
      "û": 187,
      "ü": 188,
      "ý": 189,
      "þ": 190,
      "ÿ": 191,
      "Ā": 192,
      "ā": 193,
      "Ă": 194,
      "ă": 195,
      "Ą": 196,
      "ą": 197,
      "Ć": 198,
      "ć": 199,
      "Ĉ": 200,
      "ĉ": 201,
      "Ċ": 202,
      "ċ": 203,
      "Č": 204,
      "č": 205,
      "Ď": 206,
      "ď": 207,
      "Đ": 208,
      "đ": 209,
      "Ē": 210,
      "ē": 211,
      "Ĕ": 212,
      "ĕ": 213,
      "Ė": 214,
      "ė": 215,
      "Ę": 216,
      "ę": 217,
      "Ě": 218,
      "ě": 219,
      "Ĝ": 220,
      "ĝ": 221,
      "Ğ": 222,
      "ğ": 223,
      "Ġ": 224,
      "ġ": 225,
      "Ģ": 226,
      "ģ": 227,
      "Ĥ": 228,
      "ĥ": 229,
      "Ħ": 230,
      "ħ": 231,
      "Ĩ": 232,
      "ĩ": 233,
      "Ī": 234,
      "ī": 235,
      "Ĭ": 236,
      "ĭ": 237,
      "Į": 238,
      "į": 239,
      "İ": 240,
      "ı": 241,
      "Ĳ": 242,
      "ĳ": 243,
      "Ĵ": 244,
      "ĵ": 245,
      "Ķ": 246,
      "ķ": 247,
      "ĸ": 248,
      "Ĺ": 249,
      "ĺ": 250,
      "Ļ": 251,
      "ļ": 252,
      "Ľ": 253,
      "ľ": 254,
      "Ŀ": 255,
      "ŀ": 256,
      "Ł": 257,
      "ł": 258,
      "Ń": 259,
      "ãĢ": 260,
      "ãĢĤ": 261,
      "åı": 262,
      "ä»": 263,
      "ä¸": 264,
      "ç»": 265,
      "åı¯": 266,
      "ct": 267,
      "çĶ": 268,
      "od": 269,
      "çļ": 270,
      "ä»¥": 271,
      "åı¯ä»¥": 272,
      "çļĦ": 273,
      "on": 274,
      "è¿": 275,
      "çĶ¨": 276,
      "è®": 277,
      "éĢ": 278,
      "be": 279,
      "åº": 280,
      "åĲ": 281,
      "ion": 282,
      "æľ": 283,
      "å¸": 284,
      "Ġåı¯ä»¥": 285,
      "in": 286,
      "es": 287,
      "äº": 288,
      "åĴ": 289,
      "éĢļ": 290,
      "åĴĮ": 291,
      "uct": 292,
      "rod": 293,
      "åĪ": 294,
      "uction": 295,
      "roduction": 296,
      "åĬ": 297,
      "Ġp": 298,
      "Ġs": 299,
      "ãĢģ": 300,
      "æĺ": 301,
      "å¸¸": 302,
      "å¤": 303,
      "åŃ": 304,
      "ç½": 305,
      "et": 306,
      "ube": 307,
      "ä½": 308,
      "è¯": 309,
      "åŃĺ": 310,
      "æİ": 311,
      "æĹ": 312,
      "è¡": 313,
      "Ł¥": 314,
      "æŁ¥": 315,
      "er": 316,
      "æĺ¯": 317,
      "re": 318,
      "ç½ĳ": 319,
      "ou": 320,
      "æķ": 321,
      "ç»Ł": 322,
      "en": 323,
      "³»": 324,
      "ç³»": 325,
      "äºİ": 326,
      "ç³»ç»Ł": 327,
      "å®": 328,
      "åĨ": 329,
      "éĢļå¸¸": 330,
      "Ġproduction": 331,
      "PU": 332,
      "ctl": 333,
      "çĶ¨äºİ": 334,
      "ç¨": 335,
      "éĹ": 336,
      "åĬ¡": 337,
      "åħ": 338,
      "åĻ": 339,
      "ç»ľ": 340,
      "è¿Ľ": 341,
      "åºĶ": 342,
      "ç½ĳç»ľ": 343,
      "ç¨ĭ": 344,
      "åĻ¨": 345,
      "æĪ": 346,
      "æĸ": 347,
      "įåĬ¡": 348,
      "æľįåĬ¡": 349,
      "¡ç": 350,
      "åľ": 351,
      "Ġ-": 352,
      "è¡Į": 353,
      "at": 354,
      "kube": 355,
      "ä¿": 356,
      "æį": 357,
      "kubectl": 358,
      "æĢ": 359,
      "ĥ½": 360,
      "ä»¶": 361,
      "ent": 362,
      "GPU": 363,
      "hou": 364,
      "lo": 365,
      "æŁ¥ç": 366,
      "ld": 367,
      "st": 368,
      "çİ": 369,
      "ĠP": 370,
      "Ġæĺ¯": 371,
      "ľĭ": 372,
      "ä¸Ģ": 373,
      "ä¸Ń": 374,
      "Ġshou": 375,
      "æį®": 376,
      "æŁ¥çľĭ": 377,
      "Ġshould": 378,
      "ic": 379,
      "æł": 380,
      "èĥ½": 381,
      "éĩ": 382,
      "Ġc": 383,
      "ä¸ª": 384,
      "ä¸į": 385,
      "åĪĨ": 386,
      "Production": 387,
      "ll": 388,
      "ºĲ": 389,
      "ä¼": 390,
      "å°": 391,
      "æı": 392,
      "æºĲ": 393,
      "èµ": 394,
      "Ġa": 395,
      "Ġt": 396,
      "åº¦": 397,
      "æķ°": 398,
      "åĨħ": 399,
      "ed": 400,
      "rn": 401,
      "¿çĶ¨": 402,
      "ä¹": 403,
      "å¼": 404,
      "æŃ": 405,
      "çĽ": 406,
      "è§": 407,
      "éľ": 408,
      "ĲĨ": 409,
      "è¿ĩ": 410,
      "ä½¿çĶ¨": 411,
      "æİ¥": 412,
      "å®¹": 413,
      "or": 414,
      "¦ģ": 415,
      "±Ĥ": 416,
      "èĢ": 417,
      "è¦ģ": 418,
      "ĠGPU": 419,
      "ĦæºĲ": 420,
      "Ġåı¯ä»¥æŁ¥çľĭ": 421,
      "æĹ¶": 422,
      "è¿Ľç¨ĭ": 423,
      "èµĦæºĲ": 424,
      "åĨħåŃĺ": 425,
      "éľĢ": 426,
      "Kube": 427,
      "it": 428,
      "ra": 429,
      "å¯": 430,
      "åĿ": 431,
      "æĮ": 432,
      "è´": 433,
      "Ġd": 434,
      "è®¡ç": 435,
      "ing": 436,
      "etes": 437,
      "éĹ®": 438,
      "rnetes": 439,
      "å®¹åĻ¨": 440,
      "Kubernetes": 441,
      "®Ĺ": 442,
      "å¹": 443,
      "å¿": 444,
      "åĮ": 445,
      "åį": 446,
      "åĽ": 447,
      "æŀ": 448,
      "Ġre": 449,
      "è®¾": 450,
      "å¤ļ": 451,
      "è¯¥": 452,
      "æıĲ": 453,
      "æķ°æį®": 454,
      "è®¡ç®Ĺ": 455,
      "em": 456,
      "get": 457,
      "ro": 458,
      "ä¾": 459,
      "æī": 460,
      "è½": 461,
      "ĠC": 462,
      "Ġbe": 463,
      "Ġget": 464,
      "åºĶè¯¥": 465,
      "åľ°": 466,
      "he": 467,
      "ment": 468,
      "¨¡": 469,
      "¶æĢ": 470,
      "åĩ": 471,
      "åŀ": 472,
      "æ¨¡": 473,
      "çĬ": 474,
      "ĠI": 475,
      "Ĥ¹": 476,
      "åıĳ": 477,
      "æĪĸ": 478,
      "ä¿¡": 479,
      "çİ°": 480,
      "éľĢè¦ģ": 481,
      "¶æĢģ": 482,
      "åŀĭ": 483,
      "çĬ¶æĢģ": 484,
      "ac": 485,
      "an": 486,
      "¥å¿": 487,
      "¨ç": 488,
      "«ĺ": 489,
      "æ±Ĥ": 490,
      "ç¡": 491,
      "ç«": 492,
      "çĤ¹": 493,
      "è¾": 494,
      "éĻ": 495,
      "éļ": 496,
      "é«ĺ": 497,
      "ĠKubernetes": 498,
      "ĵį": 499,
      "åĲĮ": 500,
      "inu": 501,
      "æĹ¥å¿": 502,
      "éĹ´": 503,
      "æĸĩ": 504,
      "èĢħ": 505,
      "åĿĢ": 506,
      "è´Ł": 507,
      "æĹ¥å¿Ĺ": 508,
      "al": 509,
      "ta": 510,
      "us": 511,
      "åŁ": 512,
      "Ġn": 513,
      "Ġin": 514,
      "ĠéĢļå¸¸": 515,
      "Ńç»": 516,
      "åı£": 517,
      "è¿Ĳ": 518,
      "è¿ŀ": 519,
      "è®Ńç»": 520,
      "åĲİ": 521,
      "éĢļè¿ĩ": 522,
      "åºĶçĶ¨": 523,
      "æĢ§": 524,
      "ĠPod": 525,
      "ä¸ŃçļĦ": 526,
      "éĩį": 527,
      "ä¹ĭ": 528,
      "Ġde": 529,
      "åľ°åĿĢ": 530,
      "æ¨¡åŀĭ": 531,
      "æĪĸèĢħ": 532,
      "æĸĩä»¶": 533,
      "è®Ńç»ĥ": 534,
      "CP": 535,
      "HT": 536,
      "Linu": 537,
      "TP": 538,
      "TCP": 539,
      "ad": 540,
      "ch": 541,
      "im": 542,
      "plo": 543,
      "yst": 544,
      "æ³": 545,
      "æĬ": 546,
      "ç®": 547,
      "èĬ": 548,
      "éĿ": 549,
      "Ġm": 550,
      "ĤçĤ¹": 551,
      "ħéļ": 552,
      "ä¸º": 553,
      "æľī": 554,
      "å¤ĩ": 555,
      "ä½ľ": 556,
      "æĹł": 557,
      "æķħéļ": 558,
      "è¿Ľè¡Į": 559,
      "åľ¨": 560,
      "æłĩ": 561,
      "ä¸įåĲĮ": 562,
      "ä¼ł": 563,
      "æĮĩ": 564,
      "åĮĸ": 565,
      "æıĲä¾": 566,
      "è¿Ĳè¡Į": 567,
      "HTTP": 568,
      "Linux": 569,
      "ploy": 570,
      "ystem": 571,
      "èĬĤçĤ¹": 572,
      "æķħéļľ": 573,
      "æıĲä¾Ľ": 574,
      "ig": 575,
      "il": 576,
      "ul": 577,
      "¢ĺ": 578,
      "å½": 579,
      "åĳ": 580,
      "æĥ": 581,
      "æĭ": 582,
      "éķ": 583,
      "éĺ": 584,
      "é¢ĺ": 585,
      "Ġus": 586,
      "Ġåľ°åĿĢ": 587,
      "ħåĨ": 588,
      "ä¸Ĭ": 589,
      "ç»Ħ": 590,
      "åı¯èĥ½": 591,
      "è®¤": 592,
      "åĬ¨": 593,
      "å¤§": 594,
      "erv": 595,
      "åħ³": 596,
      "æĪĲ": 597,
      "¡çĲĨ": 598,
      "ä¿Ŀ": 599,
      "ä¸Ģä¸ª": 600,
      "éĩı": 601,
      "å¼Ģ": 602,
      "éĹ®é¢ĺ": 603,
      "æŀĲ": 604,
      "è®¾å¤ĩ": 605,
      "ĠCPU": 606,
      "è¾ĵ": 607,
      "è¿ŀæİ¥": 608,
      "Ġdeploy": 609,
      "ç®¡çĲĨ": 610,
      "æĥħåĨ": 611,
      "æĥħåĨµ": 612,
      "res": 613,
      "£Ģ": 614,
      "£ģ": 615,
      "¾åŃĺ": 616,
      "¿éĹ®": 617,
      "å·": 618,
      "å»": 619,
      "æĽ": 620,
      "æ£Ģ": 621,
      "ç§": 622,
      "ç¼": 623,
      "ç£ģ": 624,
      "è°": 625,
      "éĥ": 626,
      "éĽ": 627,
      "Ġw": 628,
      "Ġä¼": 629,
      "ıè®": 630,
      "ä»¤": 631,
      "çĶ±": 632,
      "è®¿éĹ®": 633,
      "åºı": 634,
      "æľº": 635,
      "å¸ĥ": 636,
      "åĪ¶": 637,
      "Ġpod": 638,
      "Ġst": 639,
      "æĺ¾åŃĺ": 640,
      "ä½İ": 641,
      "è¯·": 642,
      "Ġcon": 643,
      "å°ĳ": 644,
      "çĽĺ": 645,
      "ä½¿çĶ¨æĥħåĨµ": 646,
      "å¹¶": 647,
      "åįıè®": 648,
      "å¤ļä¸ª": 649,
      "è½½": 650,
      "åĩº": 651,
      "ç«¯": 652,
      "è´Łè½½": 653,
      "ä¼łè¾ĵ": 654,
      "éķ¿": 655,
      "æĽ´": 656,
      "ç£ģçĽĺ": 657,
      "éĥ¨": 658,
      "éĽĨ": 659,
      "Ġä¼ļ": 660,
      "åįıè®®": 661,
      "DN": 662,
      "ab": 663,
      "ff": 664,
      "gin": 665,
      "le": 666,
      "lic": 667,
      "op": 668,
      "½ä»¤": 669,
      "å¢": 670,
      "åĤ": 671,
      "åī": 672,
      "åĵį": 673,
      "æµ": 674,
      "æĶ": 675,
      "çŃ": 676,
      "èĩ": 677,
      "Ġf": 678,
      "ĠçĶ¨äºİ": 679,
      "ĥåº¦": 680,
      "ĴæŁ¥": 681,
      "åĲ¦": 682,
      "åĲ¯": 683,
      "åĲĪ": 684,
      "Ġåı¯ä»¥çĶ¨äºİ": 685,
      "éĢļä¿¡": 686,
      "åĪ°": 687,
      "å¸¸è§": 688,
      "åŃĺåĤ": 689,
      "æİ§": 690,
      "æİ¨ç": 691,
      "æİĴæŁ¥": 692,
      "å®ŀ": 693,
      "ç¨ĭåºı": 694,
      "æĪ·": 695,
      "æĸŃ": 696,
      "æľįåĬ¡åĻ¨": 697,
      "ation": 698,
      "load": 699,
      "ä¸Ģç§": 700,
      "åĪĨæŀĲ": 701,
      "Ġthe": 702,
      "å¼ı": 703,
      "æŃ¢": 704,
      "æŃ£": 705,
      "çĽĳ": 706,
      "è§Ĥ": 707,
      "æİ¥åı£": 708,
      "åĽł": 709,
      "ç¡®": 710,
      "éĻĲ": 711,
      "Ġngin": 712,
      "ä¹ĭéĹ´": 713,
      "æĮĩæłĩ": 714,
      "åĳ½ä»¤": 715,
      "ervic": 716,
      "ä¿ĿåŃĺ": 717,
      "Ġdeployment": 718,
      "å·¥": 719,
      "æ£ĢæŁ¥": 720,
      "è°ĥåº¦": 721,
      "è¯·æ±Ĥ": 722,
      "DNS": 723,
      "åīį": 724,
      "çŃī": 725,
      "å¸¸è§ģ": 726,
      "åŃĺåĤ¨": 727,
      "æİ¨çĲĨ": 728,
      "ä¸Ģç§į": 729,
      "Ġnginx": 730,
      "ID": 731,
      "NV": 732,
      "UD": 733,
      "ail": 734,
      "cu": 735,
      "fig": 736,
      "han": 737,
      "id": 738,
      "ip": 739,
      "kload": 740,
      "lu": 741,
      "mes": 742,
      "nd": 743,
      "ore": 744,
      "plic": 745,
      "rt": 746,
      "system": 747,
      "ver": 748,
      "¤º": 749,
      "¤æĸŃ": 750,
      "®åĬ": 751,
      "¶ä»": 752,
      "·¯": 753,
      "¹æį®": 754,
      "å±Ĥ": 755,
      "æģ": 756,
      "æĵį": 757,
      "çĦ": 758,
      "è¶": 759,
      "èĮ": 760,
      "è·¯": 761,
      "éģ": 762,
      "ĠåĴĮ": 763,
      "Ġä¸ŃçļĦ": 764,
      "ĠæıĲä¾Ľ": 765,
      "Ġåĳ½ä»¤": 766,
      "ĥåĽ": 767,
      "ĪæŃ¢": 768,
      "ŁåĲ": 769,
      "ä»£": 770,
      "ç»ĪæŃ¢": 771,
      "çĶ¨æĪ·": 772,
      "åĲĳ": 773,
      "å¸®åĬ": 774,
      "åĪ¤æĸŃ": 775,
      "Ġpro": 776,
      "ç½®": 777,
      "è¯ģ": 778,
      "è¡¨ç": 779,
      "æĺ¯åĲ¦": 780,
      "éĢļå¸¸éľĢè¦ģ": 781,
      "åħ¶ä»": 782,
      "ents": 783,
      "çİĩ": 784,
      "æł¹æį®": 785,
      "åĪĨå¸ĥ": 786,
      "lly": 787,
      "orkload": 788,
      "å¯¹": 789,
      "å¯Ł": 790,
      "å¹³": 791,
      "åĮħ": 792,
      "åįķ": 793,
      "æŀľ": 794,
      "ĠIP": 795,
      "ack": 796,
      "tart": 797,
      "åŁº": 798,
      "åŁŁåĲ": 799,
      "æĢ§èĥ½": 800,
      "æ³ķ": 801,
      "éĿ¢": 802,
      "æĹłæ³ķ": 803,
      "Ġworkload": 804,
      "éĥ¨åĪĨ": 805,
      "åĲ¯åĬ¨": 806,
      "çĽĳæİ§": 807,
      "è§Ĥå¯Ł": 808,
      "ç¡®è®¤": 809,
      "å¸¸è§ģçļĦ": 810,
      "æģ¯": 811,
      "æĵįä½ľ": 812,
      "çĦ¶": 813,
      "èĮĥåĽ": 814,
      "å¸®åĬ©": 815,
      "è¡¨ç¤º": 816,
      "åħ¶ä»ĸ": 817,
      "åŁŁåĲį": 818,
      "Ġworkloads": 819,
      "èĮĥåĽ´": 820,
      "IA": 821,
      "IP": 822,
      "Pod": 823,
      "The": 824,
      "ames": 825,
      "cr": 826,
      "el": 827,
      "gs": 828,
      "ill": 829,
      "lim": 830,
      "pac": 831,
      "qu": 832,
      "ts": 833,
      "up": 834,
      "ure": 835,
      "vi": 836,
      "¢¯": 837,
      "¦Ĥ": 838,
      "§è¡Į": 839,
      "©º": 840,
      "©çĶ¨": 841,
      "¯ä»¶": 842,
      "¿åħ": 843,
      "å¾": 844,
      "å¦Ĥ": 845,
      "æĿ": 846,
      "æ¢¯": 847,
      "çł": 848,
      "ç©º": 849,
      "Ġb": 850,
      "ĠçļĦ": 851,
      "Ġen": 852,
      "Ġlo": 853,
      "Ġä¸Ń": 854,
      "ĠèµĦæºĲ": 855,
      "ĠHTTP": 856,
      "Ġres": 857,
      "ĠDNS": 858,
      "ç»ĵ": 859,
      "ç»Ń": 860,
      "çĶŁ": 861,
      "çļĦæķ°æį®": 862,
      "onit": 863,
      "æľ¬": 864,
      "Ġåı¯ä»¥æĬ": 865,
      "ess": 866,
      "åĪ©çĶ¨": 867,
      "Ġsystem": 868,
      "Ġservic": 869,
      "å¤Ħ": 870,
      "ä½į": 871,
      "è¡¨": 872,
      "ers": 873,
      "ç½ĳåħ³": 874,
      "out": 875,
      "å®ļ": 876,
      "åħĪ": 877,
      "æľįåĬ¡çļĦ": 878,
      "ate": 879,
      "stat": 880,
      "Ġæĺ¯ä¸Ģç§į": 881,
      "Ġand": 882,
      "Ġto": 883,
      "ä¹Ł": 884,
      "éľĢæ±Ĥ": 885,
      "ity": 886,
      "åĿĩ": 887,
      "æĮģ": 888,
      "è´£": 889,
      "æıĲé«ĺ": 890,
      "è®¡ç®Ĺæľº": 891,
      "æīĢ": 892,
      "æī§è¡Į": 893,
      "è½¯ä»¶": 894,
      "ĠIO": 895,
      "ä¿¡æģ¯": 896,
      "ç¡Ģ": 897,
      "ç«ĭ": 898,
      "è´Łè´£": 899,
      "ĠéĢļå¸¸çĶ¨äºİ": 900,
      "ĠéĢļå¸¸è¡¨ç¤º": 901,
      "æķħéļľæİĴæŁ¥": 902,
      "å½ĵ": 903,
      "æĭ¥": 904,
      "å»º": 905,
      "Ġpods": 906,
      "Ġconfig": 907,
      "åĩºçİ°": 908,
      "éķ¿åº¦": 909,
      "åĵįåºĶ": 910,
      "æµĭ": 911,
      "æŃ£å¸¸": 912,
      "éĻĲåĪ¶": 913,
      "IDIA": 914,
      "NVIDIA": 915,
      "hang": 916,
      "systemctl": 917,
      "éģ¿åħ": 918,
      "Ġåĳ½ä»¤åı¯ä»¥": 919,
      "åŁºç¡Ģ": 920,
      "çĦ¶åĲİ": 921,
      "amespac": 922,
      "limit": 923,
      "å¦Ĥæŀľ": 924,
      "æ¢¯åº¦": 925,
      "çłģ": 926,
      "Ġlogs": 927,
      "åĪ©çĶ¨çİĩ": 928,
      "éģ¿åħį": 929,
      "amespace": 930,
      "16": 931,
      "50": 932,
      "Back": 933,
      "Lo": 934,
      "OM": 935,
      "Off": 936,
      "OOM": 937,
      "SI": 938,
      "Sch": 939,
      "ag": 940,
      "as": 941,
      "av": 942,
      "ara": 943,
      "bl": 944,
      "ect": 945,
      "is": 946,
      "ns": 947,
      "pplic": 948,
      "rl": 949,
      "ron": 950,
      "vents": 951,
      "®µ": 952,
      "®æĶ": 953,
      "¯å¢": 954,
      "¶æ": 955,
      "¶è¿": 956,
      "åĢ": 957,
      "æ¬": 958,
      "æ¶": 959,
      "æĻ": 960,
      "çĲĨ": 961,
      "éħ": 962,
      "éĥ½": 963,
      "Ġh": 964,
      "Ġr": 965,
      "Ġro": 966,
      "ĠTCP": 967,
      "Ġim": 968,
      "Ġä¸Ĭ": 969,
      "ĠNVIDIA": 970,
      "Ġlimit": 971,
      "Ġ50": 972,
      "ĭä»¶": 973,
      "įä½İ": 974,
      "įç½®": 975,
      "ŀåĲ": 976,
      "åı°": 977,
      "åı·": 978,
      "åı¯çĶ¨": 979,
      "åı¯éĿ": 980,
      "ode": 981,
      "åı¯ä»¥å¸®åĬ©": 982,
      "éĢŁ": 983,
      "åºĵ": 984,
      "åĲŀåĲ": 985,
      "æľĢ": 986,
      "Ġåı¯ä»¥è§Ĥå¯Ł": 987,
      "äº¤": 988,
      "äº§": 989,
      "äºĨ": 990,
      "äºĴ": 991,
      "äºĭä»¶": 992,
      "åĴĮç½ĳç»ľ": 993,
      "åĴĮåħ¶ä»ĸ": 994,
      "åĪĹ": 995,
      "åĬł": 996,
      "è¯ķ": 997,
      "è¡¡": 998,
      "ree": 999,
      "æķĪ": 1000,
      "éĢļå¸¸çĶ±": 1001,
      "åħ¥": 1002,
      "ç½ĳç»ľæİ¥åı£": 1003,
      "æĸ°": 1004,
      "æĸ¹": 1005,
      "æĸ½": 1006,
      "atch": 1007,
      "ä¿®æĶ": 1008,
      "ster": 1009,
      "çİ¯å¢": 1010,
      "ĠPro": 1011,
      "ĠPara": 1012,
      "ä¸Ńå¸¸è§ģçļĦ": 1013,
      "æł¸": 1014,
      "Ġchang": 1015,
      "ä¸įè¶": 1016,
      "llel": 1017,
      "å°½": 1018,
      "å°ı": 1019,
      "Ġav": 1020,
      "Ġtra": 1021,
      "edul": 1022,
      "æŃ¥": 1023,
      "çĽ´": 1024,
      "è¿ĩç¨ĭ": 1025,
      "èĢĹ": 1026,
      "Ġreal": 1027,
      "Ġrequ": 1028,
      "è®¾æĸ½": 1029,
      "å¤ļå°ĳ": 1030,
      "åĩĨ": 1031,
      "éĻįä½İ": 1032,
      "åĲİç«¯": 1033,
      "åºĶçĶ¨ç¨ĭåºı": 1034,
      "éĩįè¦ģ": 1035,
      "æĸĩä»¶ç³»ç»Ł": 1036,
      "Ġmonit": 1037,
      "ility": 1038,
      "éĺŁ": 1039,
      "éĺ¶æ": 1040,
      "ç»ĦæĪĲ": 1041,
      "è¿ŀæİ¥çļĦ": 1042,
      "å»¶è¿": 1043,
      "ç¼©": 1044,
      "è´Łè½½åĿĩ": 1045,
      "ä¼łè¾ĵåįıè®®": 1046,
      "ability": 1047,
      "æĶ¶": 1048,
      "èĩª": 1049,
      "èĩ´": 1050,
      "åĪ°å¤ļä¸ª": 1051,
      "ations": 1052,
      "åĽłä¸º": 1053,
      "å·¥ä½ľ": 1054,
      "UDP": 1055,
      "luster": 1056,
      "ored": 1057,
      "è·¯çĶ±": 1058,
      "åĪĨå¸ĥå¼ı": 1059,
      "å¹³åı°": 1060,
      "éĿ¢åĲĳ": 1061,
      "çĽĳæİ§æĮĩæłĩ": 1062,
      "viron": 1063,
      "ç©ºéĹ´": 1064,
      "Ġenviron": 1065,
      "Ġrestart": 1066,
      "çļĦæķ°æį®ä¼łè¾ĵ": 1067,
      "Ġåı¯ä»¥æĬĬ": 1068,
      "å¤ĦçĲĨ": 1069,
      "æĮģç»Ń": 1070,
      "æīĢæľī": 1071,
      "å½ĵåīį": 1072,
      "æĭ¥æľī": 1073,
      "å»ºç«ĭ": 1074,
      "æµĭè¯ķ": 1075,
      "åŁºç¡Ģè®¾æĸ½": 1076,
      "BackOff": 1077,
      "Schedul": 1078,
      "bles": 1079,
      "pplications": 1080,
      "åĢ¼": 1081,
      "éħįç½®": 1082,
      "Ġroll": 1083,
      "Ġimp": 1084,
      "åı¯éĿł": 1085,
      "åĲŀåĲĲ": 1086,
      "ä¿®æĶ¹": 1087,
      "çİ¯å¢ĥ": 1088,
      "ĠProbe": 1089,
      "ĠParallel": 1090,
      "ä¸įè¶³": 1091,
      "éĺ¶æ®µ": 1092,
      "å»¶è¿Ł": 1093,
      "è´Łè½½åĿĩè¡¡": 1094,
      "Ġenvironment": 1095,
      "Scheduler": 1096,
      "32": 1097,
      "BF": 1098,
      "Con": 1099,
      "Events": 1100,
      "FP": 1101,
      "In": 1102,
      "KV": 1103,
      "Kill": 1104,
      "LL": 1105,
      "NT": 1106,
      "Namespace": 1107,
      "Set": 1108,
      "Servic": 1109,
      "Vo": 1110,
      "ap": 1111,
      "act": 1112,
      "are": 1113,
      "aem": 1114,
      "ally": 1115,
      "ce": 1116,
      "cer": 1117,
      "cid": 1118,
      "df": 1119,
      "du": 1120,
      "ding": 1121,
      "ec": 1122,
      "ecr": 1123,
      "fu": 1124,
      "fy": 1125,
      "fin": 1126,
      "for": 1127,
      "fra": 1128,
      "ful": 1129,
      "fore": 1130,
      "hLo": 1131,
      "iv": 1132,
      "iz": 1133,
      "ibe": 1134,
      "ire": 1135,
      "ist": 1136,
      "ify": 1137,
      "jou": 1138,
      "kill": 1139,
      "me": 1140,
      "mp": 1141,
      "of": 1142,
      "ri": 1143,
      "ric": 1144,
      "rit": 1145,
      "ss": 1146,
      "set": 1147,
      "shLo": 1148,
      "tinu": 1149,
      "top": 1150,
      "¢«": 1151,
      "£æŀĲ": 1152,
      "¥éĩį": 1153,
      "§ĭ": 1154,
      "«å¢": 1155,
      "±¡": 1156,
      "±ŀ": 1157,
      "±åĵį": 1158,
      "²¾": 1159,
      "²ç": 1160,
      "³å®ļ": 1161,
      "¸¸": 1162,
      "ºå°ĳ": 1163,
      "»ĺ": 1164,
      "»åĬ¡": 1165,
      "¼èĩ´": 1166,
      "¿æ³": 1167,
      "åģ": 1168,
      "åİ": 1169,
      "å§ĭ": 1170,
      "å±ŀ": 1171,
      "æ¯": 1172,
      "æĦ": 1173,
      "æļ": 1174,
      "æ¸¸": 1175,
      "çī": 1176,
      "çĭ": 1177,
      "ç²¾": 1178,
      "èģ": 1179,
      "èİ": 1180,
      "èĻ": 1181,
      "è¢«": 1182,
      "è±¡": 1183,
      "éĶ": 1184,
      "é»ĺ": 1185,
      "ĠT": 1186,
      "Ġe": 1187,
      "ĠæĹ¶": 1188,
      "Ġè®¾": 1189,
      "ĠçĬ¶æĢģ": 1190,
      "Ġéĩį": 1191,
      "Ġåľ¨": 1192,
      "ĠLinux": 1193,
      "Ġæķħéļľ": 1194,
      "Ġä½¿çĶ¨æĥħåĨµ": 1195,
      "Ġä¹ĭéĹ´": 1196,
      "Ġè¯·æ±Ĥ": 1197,
      "Ġä½į": 1198,
      "Ġä¹Ł": 1199,
      "Ġè´Łè´£": 1200,
      "ĠåĪ©çĶ¨çİĩ": 1201,
      "ĠOOM": 1202,
      "Ġis": 1203,
      "Ġéĥ½": 1204,
      "ĠScheduler": 1205,
      "Ģæľ": 1206,
      "Ģåĩº": 1207,
      "ģ«å¢": 1208,
      "ĥéĻĲ": 1209,
      "ıè¿": 1210,
      "ıå°ĳ": 1211,
      "ıæĦ": 1212,
      "ĵåŃĺ": 1213,
      "ĺåĮĸ": 1214,
      "Ľä½¿çĶ¨": 1215,
      "Ŀèµ": 1216,
      "ä»İ": 1217,
      "ä»»åĬ¡": 1218,
      "ä¸¢": 1219,
      "ä¸ī": 1220,
      "ä¸İ": 1221,
      "ä¸¥éĩį": 1222,
      "ç»´": 1223,
      "åı¯ä»¥çĶ¨äºİ": 1224,
      "çļĦè¿Ľç¨ĭ": 1225,
      "çļĦæĸĩä»¶": 1226,
      "çļĦæłĩ": 1227,
      "çļĦå¼Ģ": 1228,
      "çļĦè®¾å¤ĩ": 1229,
      "çļĦè®¿éĹ®": 1230,
      "è¿ĺ": 1231,
      "è®©": 1232,
      "éĢģ": 1233,
      "éĢĤ": 1234,
      "éĢĲ": 1235,
      "éĢĢåĩº": 1236,
      "bes": 1237,
      "æľŁ": 1238,
      "Ġåı¯ä»¥éĢļè¿ĩ": 1239,
      "Ġåı¯ä»¥ä¿ĿåŃĺ": 1240,
      "Ġåı¯ä»¥æł¹æį®": 1241,
      "Ġåı¯ä»¥å¸®åĬ©": 1242,
      "Ġåı¯ä»¥éĻįä½İ": 1243,
      "Ġåı¯ä»¥ä¿®æĶ¹": 1244,
      "ins": 1245,
      "iness": 1246,
      "est": 1247,
      "escr": 1248,
      "ests": 1249,
      "éĢļæĢ§": 1250,
      "åĴĮä¼": 1251,
      "åĴĮç®¡çĲĨ": 1252,
      "åĴĮäºĭä»¶": 1253,
      "åĴĮçĽĳæİ§æĮĩæłĩ": 1254,
      "åĬĽ": 1255,
      "Ġpo": 1256,
      "Ġsiz": 1257,
      "å¤ĸ": 1258,
      "etric": 1259,
      "è¯¢": 1260,
      "æŁ¥è¯¢": 1261,
      "æĺ¯ä¸Ģç§į": 1262,
      "ous": 1263,
      "æķıæĦ": 1264,
      "eness": 1265,
      "ç³»ç»ŁæĢ§èĥ½": 1266,
      "åĨį": 1267,
      "éĢļå¸¸æĭ¥æľī": 1268,
      "åħ±": 1269,
      "ç½ĳç»ľéĹ®é¢ĺ": 1270,
      "ç½ĳç»ľåĴĮåħ¶ä»ĸ": 1271,
      "åĻ¨çĬ¶æĢģ": 1272,
      "åľº": 1273,
      "è¡Įè®¡ç®Ĺ": 1274,
      "atus": 1275,
      "æį¢": 1276,
      "entVo": 1277,
      "Ġæĺ¯ä¸Ģä¸ª": 1278,
      "Ġæĺ¯å¸¸è§ģçļĦ": 1279,
      "æŁ¥çľĭç³»ç»Ł": 1280,
      "ical": 1281,
      "Ġcluster": 1282,
      "Ġcare": 1283,
      "Ġcrit": 1284,
      "ä¸įèĥ½": 1285,
      "ä¸įéľĢè¦ģ": 1286,
      "åĪĨåıĳ": 1287,
      "å°±": 1288,
      "å°Ĩ": 1289,
      "æııè¿": 1290,
      "Ġapplications": 1291,
      "Ġth": 1292,
      "æķ°åĢ¼": 1293,
      "åĨħæł¸": 1294,
      "rnal": 1295,
      "å¼Ĥ": 1296,
      "æŃ¤": 1297,
      "è§Ħ": 1298,
      "è§£æŀĲ": 1299,
      "è¿ĩä½İ": 1300,
      "ort": 1301,
      "oring": 1302,
      "Ġåı¯ä»¥æŁ¥çľĭç³»ç»Ł": 1303,
      "æĹ¶éĹ´": 1304,
      "åĨħåŃĺä½¿çĶ¨æĥħåĨµ": 1305,
      "åĨħåŃĺéĻĲåĪ¶": 1306,
      "rashLo": 1307,
      "å¯Ĩ": 1308,
      "å¯¼èĩ´": 1309,
      "Ġdescr": 1310,
      "å®¹åĻ¨æĹ¥å¿Ĺ": 1311,
      "å®¹åĻ¨åı¯èĥ½": 1312,
      "å¹¿æ³": 1313,
      "Ġrec": 1314,
      "æķ°æį®åĮħ": 1315,
      "æķ°æį®åºĵ": 1316,
      "ä¾ĭ": 1317,
      "ä¾Ŀèµ": 1318,
      "æīĭ": 1319,
      "è½¬": 1320,
      "ĠCac": 1321,
      "ĠCrashLo": 1322,
      "åºĶè¯¥éĢļè¿ĩ": 1323,
      "åºĶè¯¥ç¡®è®¤": 1324,
      "åºĶè¯¥åħĪ": 1325,
      "åĩıå°ĳ": 1326,
      "åıĳå¸ĥ": 1327,
      "åıĳéĢģ": 1328,
      "ä¿¡åı·": 1329,
      "çİ°ä»£": 1330,
      "çİ°è±¡": 1331,
      "çĬ¶æĢģåºĶçĶ¨": 1332,
      "è¾ĥ": 1333,
      "é«ĺéĢŁ": 1334,
      "tables": 1335,
      "tains": 1336,
      "Ġnamespace": 1337,
      "Ġincid": 1338,
      "è¿ŀéĢļæĢ§": 1339,
      "éĢļè¿ĩç½ĳç»ľ": 1340,
      "åºĶçĶ¨å±Ĥ": 1341,
      "ä¸ŃçļĦè®¾å¤ĩ": 1342,
      "éĩįæĸ°": 1343,
      "ä¹ĭåīį": 1344,
      "æ¨¡åŀĭæİ¨çĲĨ": 1345,
      "æ¨¡åŀĭå±Ĥ": 1346,
      "æĸĩä»¶æĿ": 1347,
      "adiness": 1348,
      "æ³¨": 1349,
      "æĬĢæľ": 1350,
      "Ġmetric": 1351,
      "æĹłæķĪ": 1352,
      "æĮĩå®ļ": 1353,
      "è¿Ĳè¡Įä¸Ģä¸ª": 1354,
      "å½ķ": 1355,
      "å½±åĵį": 1356,
      "åĳĬ": 1357,
      "æĭŁ": 1358,
      "éĺ²ç": 1359,
      "Ġuser": 1360,
      "Ġused": 1361,
      "Ġåľ°åĿĢéķ¿åº¦": 1362,
      "ä¸Ĭæ¸¸": 1363,
      "ç»Ħä»¶": 1364,
      "åı¯èĥ½å¯¼èĩ´": 1365,
      "å¤§çļĦ": 1366,
      "åħ³æ³¨": 1367,
      "ä¸Ģä¸ªå": 1368,
      "éĩıåĮĸ": 1369,
      "å¼Ģåıĳ": 1370,
      "å¼Ģå§ĭ": 1371,
      "ress": 1372,
      "ç¼ºå°ĳ": 1373,
      "ç¼ĵåŃĺ": 1374,
      "Ġstatus": 1375,
      "æĺ¾åŃĺä½¿çĶ¨": 1376,
      "Ġcontains": 1377,
      "å¹¶è¡Įè®¡ç®Ĺ": 1378,
      "ç«¯åı£": 1379,
      "æĽ´å¤§çļĦ": 1380,
      "ç£ģçĽĺç©ºéĹ´": 1381,
      "éĽĨæĪĲ": 1382,
      "Ġä¼ļåľ¨": 1383,
      "able": 1384,
      "ffic": 1385,
      "opBackOff": 1386,
      "Ġfail": 1387,
      "Ġfree": 1388,
      "Ġåı¯ä»¥çĶ¨äºİæµĭè¯ķ": 1389,
      "å®ŀæĹ¶": 1390,
      "å®ŀä¾ĭ": 1391,
      "æŃ£åľ¨": 1392,
      "åĽłæŃ¤": 1393,
      "ä¹ĭéĹ´è¿Ľè¡Į": 1394,
      "å·¥ç¨ĭ": 1395,
      "è¯·æ±ĤåĪĨåıĳ": 1396,
      "çŃīç³»ç»Ł": 1397,
      "åŃĺåĤ¨èµĦæºĲ": 1398,
      "UDA": 1399,
      "ailability": 1400,
      "curl": 1401,
      "lume": 1402,
      "plicas": 1403,
      "è¶ħ": 1404,
      "è·¯å¾": 1405,
      "ĠæıĲä¾ĽçļĦ": 1406,
      "ä»£çłģ": 1407,
      "çĶ¨æĪ·ç»Ħ": 1408,
      "åĪ¤æĸŃç³»ç»Ł": 1409,
      "Ġprobes": 1410,
      "ç½®è¿ĩä½İ": 1411,
      "æĺ¯åĲ¦æŃ£å¸¸": 1412,
      "åĲ¯åĬ¨æľįåĬ¡": 1413,
      "æĵįä½ľç³»ç»Ł": 1414,
      "IPv": 1415,
      "Ġbatch": 1416,
      "Ġä¸ŃçĶ¨äºİ": 1417,
      "ç»ĵåĲĪ": 1418,
      "çĶŁäº§": 1419,
      "æľ¬åľ°": 1420,
      "Ġservice": 1421,
      "Ġservices": 1422,
      "ersist": 1423,
      "oute": 1424,
      "ateful": 1425,
      "Ġæĺ¯ä¸Ģç§įéĿ¢åĲĳ": 1426,
      "è½¯ä»¶ç³»ç»Ł": 1427,
      "ĠéĢļå¸¸è¡¨ç¤ºç½ĳåħ³": 1428,
      "æķħéļľæİĴæŁ¥åºĶè¯¥": 1429,
      "Ġconfigure": 1430,
      "Ġåĳ½ä»¤åı¯ä»¥æŁ¥çľĭç³»ç»Ł": 1431,
      "çĦ¶åĲİæ£ĢæŁ¥": 1432,
      "æ¢¯åº¦åĴĮä¼": 1433,
      "SIG": 1434,
      "age": 1435,
      "ave": 1436,
      "ected": 1437,
      "æ¬¡": 1438,
      "æ¶Ī": 1439,
      "Ġhave": 1440,
      "Ġru": 1441,
      "äºĴèģ": 1442,
      "æĸ¹å¼ı": 1443,
      "Ġchanges": 1444,
      "Ġavailability": 1445,
      "Ġtraffic": 1446,
      "çĽ´æİ¥": 1447,
      "èĢĹå°½": 1448,
      "Ġrequire": 1449,
      "å¤ļå°ĳèµĦæºĲ": 1450,
      "åĩĨæİ¥åı£": 1451,
      "Ġmonitored": 1452,
      "éĺŁåĪĹ": 1453,
      "è¿ŀæİ¥çļĦä¼łè¾ĵåįıè®®": 1454,
      "ç¼©å°ı": 1455,
      "æĶ¶éĽĨ": 1456,
      "èĩªåĬ¨": 1457,
      "åĪ°å¤ļä¸ªåĲİç«¯": 1458,
      "è·¯çĶ±è¡¨": 1459,
      "åĪĨå¸ĥå¼ıç³»ç»Ł": 1460,
      "å»ºç«ĭè¿ŀæİ¥": 1461,
      "Ġrollout": 1462,
      "Ġimpact": 1463,
      "åĲŀåĲĲéĩı": 1464,
      "è´Łè½½åĿĩè¡¡åĻ¨": 1465,
      "Service": 1466,
      "aemon": 1467,
      "ecret": 1468,
      "fully": 1469,
      "form": 1470,
      "iveness": 1471,
      "journal": 1472,
      "tinuous": 1473,
      "çĭ¬": 1474,
      "ç²¾åº¦": 1475,
      "èİ·": 1476,
      "è¢«ç»ĪæŃ¢": 1477,
      "é»ĺè®¤": 1478,
      "Ġè®¾ç½®è¿ĩä½İ": 1479,
      "Ġéĩįä¼ł": 1480,
      "ģ«å¢Ļ": 1481,
      "ĺåĮĸåĻ¨çĬ¶æĢģ": 1482,
      "çļĦæłĩåĩĨæİ¥åı£": 1483,
      "çļĦå¼ĢæºĲ": 1484,
      "Ġåı¯ä»¥éĻįä½İæĺ¾åŃĺä½¿çĶ¨": 1485,
      "Ġsize": 1486,
      "æķıæĦŁ": 1487,
      "entVolume": 1488,
      "Ġcarefully": 1489,
      "Ġcritical": 1490,
      "æııè¿°": 1491,
      "Ġdescribe": 1492,
      "ä¾Ŀèµĸ": 1493,
      "ĠCache": 1494,
      "ĠCrashLoopBackOff": 1495,
      "Ġincidents": 1496,
      "åºĶçĶ¨å±Ĥåįıè®®": 1497,
      "ä¹ĭåīįåºĶè¯¥ç¡®è®¤": 1498,
      "æĸĩä»¶æĿĥéĻĲ": 1499,
      "æĬĢæľ¯": 1500,
      "Ġmetrics": 1501,
      "å½±åĵįèĮĥåĽ´": 1502,
      "éĺ²çģ«å¢Ļ": 1503,
      "Ġåľ°åĿĢéķ¿åº¦ä¸º": 1504,
      "ä¸Ĭæ¸¸æľįåĬ¡": 1505,
      "ç¼ºå°ĳåĨħåŃĺ": 1506,
      "è¯·æ±ĤåĪĨåıĳåĪ°å¤ļä¸ªåĲİç«¯": 1507,
      "è·¯å¾Ħ": 1508,
      "çĶŁäº§çİ¯å¢ĥ": 1509,
      "ersistentVolume": 1510,
      "æ¢¯åº¦åĴĮä¼ĺåĮĸåĻ¨çĬ¶æĢģ": 1511,
      "äºĴèģĶ": 1512,
      "journalctl": 1513
    },
    "merges": [
      [
        "ã",
        "Ģ"
      ],
      [
        "ãĢ",
        "Ĥ"
      ],
      [
        "å",
        "ı"
      ],
      [
        "ä",
        "»"
      ],
      [
        "ä",
        "¸"
      ],
      [
        "ç",
        "»"
      ],
      [
        "åı",
        "¯"
      ],
      [
        "c",
        "t"
      ],
      [
        "ç",
        "Ķ"
      ],
      [
        "o",
        "d"
      ],
      [
        "ç",
        "ļ"
      ],
      [
        "ä»",
        "¥"
      ],
      [
        "åı¯",
        "ä»¥"
      ],
      [
        "çļ",
        "Ħ"
      ],
      [
        "o",
        "n"
      ],
      [
        "è",
        "¿"
      ],
      [
        "çĶ",
        "¨"
      ],
      [
        "è",
        "®"
      ],
      [
        "é",
        "Ģ"
      ],
      [
        "b",
        "e"
      ],
      [
        "å",
        "º"
      ],
      [
        "å",
        "Ĳ"
      ],
      [
        "i",
        "on"
      ],
      [
        "æ",
        "ľ"
      ],
      [
        "å",
        "¸"
      ],
      [
        "Ġ",
        "åı¯ä»¥"
      ],
      [
        "i",
        "n"
      ],
      [
        "e",
        "s"
      ],
      [
        "ä",
        "º"
      ],
      [
        "å",
        "Ĵ"
      ],
      [
        "éĢ",
        "ļ"
      ],
      [
        "åĴ",
        "Į"
      ],
      [
        "u",
        "ct"
      ],
      [
        "r",
        "od"
      ],
      [
        "å",
        "Ī"
      ],
      [
        "uct",
        "ion"
      ],
      [
        "rod",
        "uction"
      ],
      [
        "å",
        "Ĭ"
      ],
      [
        "Ġ",
        "p"
      ],
      [
        "Ġ",
        "s"
      ],
      [
        "ãĢ",
        "ģ"
      ],
      [
        "æ",
        "ĺ"
      ],
      [
        "å¸",
        "¸"
      ],
      [
        "å",
        "¤"
      ],
      [
        "å",
        "Ń"
      ],
      [
        "ç",
        "½"
      ],
      [
        "e",
        "t"
      ],
      [
        "u",
        "be"
      ],
      [
        "ä",
        "½"
      ],
      [
        "è",
        "¯"
      ],
      [
        "åŃ",
        "ĺ"
      ],
      [
        "æ",
        "İ"
      ],
      [
        "æ",
        "Ĺ"
      ],
      [
        "è",
        "¡"
      ],
      [
        "Ł",
        "¥"
      ],
      [
        "æ",
        "Ł¥"
      ],
      [
        "e",
        "r"
      ],
      [
        "æĺ",
        "¯"
      ],
      [
        "r",
        "e"
      ],
      [
        "ç½",
        "ĳ"
      ],
      [
        "o",
        "u"
      ],
      [
        "æ",
        "ķ"
      ],
      [
        "ç»",
        "Ł"
      ],
      [
        "e",
        "n"
      ],
      [
        "³",
        "»"
      ],
      [
        "ç",
        "³»"
      ],
      [
        "äº",
        "İ"
      ],
      [
        "ç³»",
        "ç»Ł"
      ],
      [
        "å",
        "®"
      ],
      [
        "å",
        "Ĩ"
      ],
      [
        "éĢļ",
        "å¸¸"
      ],
      [
        "Ġp",
        "roduction"
      ],
      [
        "P",
        "U"
      ],
      [
        "ct",
        "l"
      ],
      [
        "çĶ¨",
        "äºİ"
      ],
      [
        "ç",
        "¨"
      ],
      [
        "é",
        "Ĺ"
      ],
      [
        "åĬ",
        "¡"
      ],
      [
        "å",
        "ħ"
      ],
      [
        "å",
        "Ļ"
      ],
      [
        "ç»",
        "ľ"
      ],
      [
        "è¿",
        "Ľ"
      ],
      [
        "åº",
        "Ķ"
      ],
      [
        "ç½ĳ",
        "ç»ľ"
      ],
      [
        "ç¨",
        "ĭ"
      ],
      [
        "åĻ",
        "¨"
      ],
      [
        "æ",
        "Ī"
      ],
      [
        "æ",
        "ĸ"
      ],
      [
        "į",
        "åĬ¡"
      ],
      [
        "æľ",
        "įåĬ¡"
      ],
      [
        "¡",
        "ç"
      ],
      [
        "å",
        "ľ"
      ],
      [
        "Ġ",
        "-"
      ],
      [
        "è¡",
        "Į"
      ],
      [
        "a",
        "t"
      ],
      [
        "k",
        "ube"
      ],
      [
        "ä",
        "¿"
      ],
      [
        "æ",
        "į"
      ],
      [
        "kube",
        "ctl"
      ],
      [
        "æ",
        "Ģ"
      ],
      [
        "ĥ",
        "½"
      ],
      [
        "ä»",
        "¶"
      ],
      [
        "en",
        "t"
      ],
      [
        "G",
        "PU"
      ],
      [
        "h",
        "ou"
      ],
      [
        "l",
        "o"
      ],
      [
        "æŁ¥",
        "ç"
      ],
      [
        "l",
        "d"
      ],
      [
        "s",
        "t"
      ],
      [
        "ç",
        "İ"
      ],
      [
        "Ġ",
        "P"
      ],
      [
        "Ġ",
        "æĺ¯"
      ],
      [
        "ľ",
        "ĭ"
      ],
      [
        "ä¸",
        "Ģ"
      ],
      [
        "ä¸",
        "Ń"
      ],
      [
        "Ġs",
        "hou"
      ],
      [
        "æį",
        "®"
      ],
      [
        "æŁ¥ç",
        "ľĭ"
      ],
      [
        "Ġshou",
        "ld"
      ],
      [
        "i",
        "c"
      ],
      [
        "æ",
        "ł"
      ],
      [
        "è",
        "ĥ½"
      ],
      [
        "é",
        "ĩ"
      ],
      [
        "Ġ",
        "c"
      ],
      [
        "ä¸",
        "ª"
      ],
      [
        "ä¸",
        "į"
      ],
      [
        "åĪ",
        "Ĩ"
      ],
      [
        "P",
        "roduction"
      ],
      [
        "l",
        "l"
      ],
      [
        "º",
        "Ĳ"
      ],
      [
        "ä",
        "¼"
      ],
      [
        "å",
        "°"
      ],
      [
        "æ",
        "ı"
      ],
      [
        "æ",
        "ºĲ"
      ],
      [
        "è",
        "µ"
      ],
      [
        "Ġ",
        "a"
      ],
      [
        "Ġ",
        "t"
      ],
      [
        "åº",
        "¦"
      ],
      [
        "æķ",
        "°"
      ],
      [
        "åĨ",
        "ħ"
      ],
      [
        "e",
        "d"
      ],
      [
        "r",
        "n"
      ],
      [
        "¿",
        "çĶ¨"
      ],
      [
        "ä",
        "¹"
      ],
      [
        "å",
        "¼"
      ],
      [
        "æ",
        "Ń"
      ],
      [
        "ç",
        "Ľ"
      ],
      [
        "è",
        "§"
      ],
      [
        "é",
        "ľ"
      ],
      [
        "Ĳ",
        "Ĩ"
      ],
      [
        "è¿",
        "ĩ"
      ],
      [
        "ä½",
        "¿çĶ¨"
      ],
      [
        "æİ",
        "¥"
      ],
      [
        "å®",
        "¹"
      ],
      [
        "o",
        "r"
      ],
      [
        "¦",
        "ģ"
      ],
      [
        "±",
        "Ĥ"
      ],
      [
        "è",
        "Ģ"
      ],
      [
        "è",
        "¦ģ"
      ],
      [
        "Ġ",
        "GPU"
      ],
      [
        "Ħ",
        "æºĲ"
      ],
      [
        "Ġåı¯ä»¥",
        "æŁ¥çľĭ"
      ],
      [
        "æĹ",
        "¶"
      ],
      [
        "è¿Ľ",
        "ç¨ĭ"
      ],
      [
        "èµ",
        "ĦæºĲ"
      ],
      [
        "åĨħ",
        "åŃĺ"
      ],
      [
        "éľ",
        "Ģ"
      ],
      [
        "K",
        "ube"
      ],
      [
        "i",
        "t"
      ],
      [
        "r",
        "a"
      ],
      [
        "å",
        "¯"
      ],
      [
        "å",
        "Ŀ"
      ],
      [
        "æ",
        "Į"
      ],
      [
        "è",
        "´"
      ],
      [
        "Ġ",
        "d"
      ],
      [
        "è®",
        "¡ç"
      ],
      [
        "in",
        "g"
      ],
      [
        "et",
        "es"
      ],
      [
        "éĹ",
        "®"
      ],
      [
        "rn",
        "etes"
      ],
      [
        "å®¹",
        "åĻ¨"
      ],
      [
        "Kube",
        "rnetes"
      ],
      [
        "®",
        "Ĺ"
      ],
      [
        "å",
        "¹"
      ],
      [
        "å",
        "¿"
      ],
      [
        "å",
        "Į"
      ],
      [
        "å",
        "į"
      ],
      [
        "å",
        "Ľ"
      ],
      [
        "æ",
        "ŀ"
      ],
      [
        "Ġ",
        "re"
      ],
      [
        "è®",
        "¾"
      ],
      [
        "å¤",
        "ļ"
      ],
      [
        "è¯",
        "¥"
      ],
      [
        "æı",
        "Ĳ"
      ],
      [
        "æķ°",
        "æį®"
      ],
      [
        "è®¡ç",
        "®Ĺ"
      ],
      [
        "e",
        "m"
      ],
      [
        "g",
        "et"
      ],
      [
        "r",
        "o"
      ],
      [
        "ä",
        "¾"
      ],
      [
        "æ",
        "ī"
      ],
      [
        "è",
        "½"
      ],
      [
        "Ġ",
        "C"
      ],
      [
        "Ġ",
        "be"
      ],
      [
        "Ġ",
        "get"
      ],
      [
        "åºĶ",
        "è¯¥"
      ],
      [
        "åľ",
        "°"
      ],
      [
        "h",
        "e"
      ],
      [
        "m",
        "ent"
      ],
      [
        "¨",
        "¡"
      ],
      [
        "¶",
        "æĢ"
      ],
      [
        "å",
        "ĩ"
      ],
      [
        "å",
        "ŀ"
      ],
      [
        "æ",
        "¨¡"
      ],
      [
        "ç",
        "Ĭ"
      ],
      [
        "Ġ",
        "I"
      ],
      [
        "Ĥ",
        "¹"
      ],
      [
        "åı",
        "ĳ"
      ],
      [
        "æĪ",
        "ĸ"
      ],
      [
        "ä¿",
        "¡"
      ],
      [
        "çİ",
        "°"
      ],
      [
        "éľĢ",
        "è¦ģ"
      ],
      [
        "¶æĢ",
        "ģ"
      ],
      [
        "åŀ",
        "ĭ"
      ],
      [
        "çĬ",
        "¶æĢģ"
      ],
      [
        "a",
        "c"
      ],
      [
        "a",
        "n"
      ],
      [
        "¥",
        "å¿"
      ],
      [
        "¨",
        "ç"
      ],
      [
        "«",
        "ĺ"
      ],
      [
        "æ",
        "±Ĥ"
      ],
      [
        "ç",
        "¡"
      ],
      [
        "ç",
        "«"
      ],
      [
        "ç",
        "Ĥ¹"
      ],
      [
        "è",
        "¾"
      ],
      [
        "é",
        "Ļ"
      ],
      [
        "é",
        "ļ"
      ],
      [
        "é",
        "«ĺ"
      ],
      [
        "Ġ",
        "Kubernetes"
      ],
      [
        "ĵ",
        "į"
      ],
      [
        "åĲ",
        "Į"
      ],
      [
        "in",
        "u"
      ],
      [
        "æĹ",
        "¥å¿"
      ],
      [
        "éĹ",
        "´"
      ],
      [
        "æĸ",
        "ĩ"
      ],
      [
        "èĢ",
        "ħ"
      ],
      [
        "åĿ",
        "Ģ"
      ],
      [
        "è´",
        "Ł"
      ],
      [
        "æĹ¥å¿",
        "Ĺ"
      ],
      [
        "a",
        "l"
      ],
      [
        "t",
        "a"
      ],
      [
        "u",
        "s"
      ],
      [
        "å",
        "Ł"
      ],
      [
        "Ġ",
        "n"
      ],
      [
        "Ġ",
        "in"
      ],
      [
        "Ġ",
        "éĢļå¸¸"
      ],
      [
        "Ń",
        "ç»"
      ],
      [
        "åı",
        "£"
      ],
      [
        "è¿",
        "Ĳ"
      ],
      [
        "è¿",
        "ŀ"
      ],
      [
        "è®",
        "Ńç»"
      ],
      [
        "åĲ",
        "İ"
      ],
      [
        "éĢļ",
        "è¿ĩ"
      ],
      [
        "åºĶ",
        "çĶ¨"
      ],
      [
        "æĢ",
        "§"
      ],
      [
        "ĠP",
        "od"
      ],
      [
        "ä¸Ń",
        "çļĦ"
      ],
      [
        "éĩ",
        "į"
      ],
      [
        "ä¹",
        "ĭ"
      ],
      [
        "Ġd",
        "e"
      ],
      [
        "åľ°",
        "åĿĢ"
      ],
      [
        "æ¨¡",
        "åŀĭ"
      ],
      [
        "æĪĸ",
        "èĢħ"
      ],
      [
        "æĸĩ",
        "ä»¶"
      ],
      [
        "è®Ńç»",
        "ĥ"
      ],
      [
        "C",
        "P"
      ],
      [
        "H",
        "T"
      ],
      [
        "L",
        "inu"
      ],
      [
        "T",
        "P"
      ],
      [
        "T",
        "CP"
      ],
      [
        "a",
        "d"
      ],
      [
        "c",
        "h"
      ],
      [
        "i",
        "m"
      ],
      [
        "p",
        "lo"
      ],
      [
        "y",
        "st"
      ],
      [
        "æ",
        "³"
      ],
      [
        "æ",
        "Ĭ"
      ],
      [
        "ç",
        "®"
      ],
      [
        "è",
        "Ĭ"
      ],
      [
        "é",
        "Ŀ"
      ],
      [
        "Ġ",
        "m"
      ],
      [
        "Ĥ",
        "çĤ¹"
      ],
      [
        "ħ",
        "éļ"
      ],
      [
        "ä¸",
        "º"
      ],
      [
        "æľ",
        "ī"
      ],
      [
        "å¤",
        "ĩ"
      ],
      [
        "ä½",
        "ľ"
      ],
      [
        "æĹ",
        "ł"
      ],
      [
        "æķ",
        "ħéļ"
      ],
      [
        "è¿Ľ",
        "è¡Į"
      ],
      [
        "åľ",
        "¨"
      ],
      [
        "æł",
        "ĩ"
      ],
      [
        "ä¸į",
        "åĲĮ"
      ],
      [
        "ä¼",
        "ł"
      ],
      [
        "æĮ",
        "ĩ"
      ],
      [
        "åĮ",
        "ĸ"
      ],
      [
        "æıĲ",
        "ä¾"
      ],
      [
        "è¿Ĳ",
        "è¡Į"
      ],
      [
        "HT",
        "TP"
      ],
      [
        "Linu",
        "x"
      ],
      [
        "plo",
        "y"
      ],
      [
        "yst",
        "em"
      ],
      [
        "èĬ",
        "ĤçĤ¹"
      ],
      [
        "æķħéļ",
        "ľ"
      ],
      [
        "æıĲä¾",
        "Ľ"
      ],
      [
        "i",
        "g"
      ],
      [
        "i",
        "l"
      ],
      [
        "u",
        "l"
      ],
      [
        "¢",
        "ĺ"
      ],
      [
        "å",
        "½"
      ],
      [
        "å",
        "ĳ"
      ],
      [
        "æ",
        "ĥ"
      ],
      [
        "æ",
        "ĭ"
      ],
      [
        "é",
        "ķ"
      ],
      [
        "é",
        "ĺ"
      ],
      [
        "é",
        "¢ĺ"
      ],
      [
        "Ġ",
        "us"
      ],
      [
        "Ġ",
        "åľ°åĿĢ"
      ],
      [
        "ħ",
        "åĨ"
      ],
      [
        "ä¸",
        "Ĭ"
      ],
      [
        "ç»",
        "Ħ"
      ],
      [
        "åı¯",
        "èĥ½"
      ],
      [
        "è®",
        "¤"
      ],
      [
        "åĬ",
        "¨"
      ],
      [
        "å¤",
        "§"
      ],
      [
        "er",
        "v"
      ],
      [
        "åħ",
        "³"
      ],
      [
        "æĪ",
        "Ĳ"
      ],
      [
        "¡ç",
        "ĲĨ"
      ],
      [
        "ä¿",
        "Ŀ"
      ],
      [
        "ä¸Ģ",
        "ä¸ª"
      ],
      [
        "éĩ",
        "ı"
      ],
      [
        "å¼",
        "Ģ"
      ],
      [
        "éĹ®",
        "é¢ĺ"
      ],
      [
        "æŀ",
        "Ĳ"
      ],
      [
        "è®¾",
        "å¤ĩ"
      ],
      [
        "ĠC",
        "PU"
      ],
      [
        "è¾",
        "ĵ"
      ],
      [
        "è¿ŀ",
        "æİ¥"
      ],
      [
        "Ġde",
        "ploy"
      ],
      [
        "ç®",
        "¡çĲĨ"
      ],
      [
        "æĥ",
        "ħåĨ"
      ],
      [
        "æĥħåĨ",
        "µ"
      ],
      [
        "r",
        "es"
      ],
      [
        "£",
        "Ģ"
      ],
      [
        "£",
        "ģ"
      ],
      [
        "¾",
        "åŃĺ"
      ],
      [
        "¿",
        "éĹ®"
      ],
      [
        "å",
        "·"
      ],
      [
        "å",
        "»"
      ],
      [
        "æ",
        "Ľ"
      ],
      [
        "æ",
        "£Ģ"
      ],
      [
        "ç",
        "§"
      ],
      [
        "ç",
        "¼"
      ],
      [
        "ç",
        "£ģ"
      ],
      [
        "è",
        "°"
      ],
      [
        "é",
        "ĥ"
      ],
      [
        "é",
        "Ľ"
      ],
      [
        "Ġ",
        "w"
      ],
      [
        "Ġ",
        "ä¼"
      ],
      [
        "ı",
        "è®"
      ],
      [
        "ä»",
        "¤"
      ],
      [
        "çĶ",
        "±"
      ],
      [
        "è®",
        "¿éĹ®"
      ],
      [
        "åº",
        "ı"
      ],
      [
        "æľ",
        "º"
      ],
      [
        "å¸",
        "ĥ"
      ],
      [
        "åĪ",
        "¶"
      ],
      [
        "Ġp",
        "od"
      ],
      [
        "Ġs",
        "t"
      ],
      [
        "æĺ",
        "¾åŃĺ"
      ],
      [
        "ä½",
        "İ"
      ],
      [
        "è¯",
        "·"
      ],
      [
        "Ġc",
        "on"
      ],
      [
        "å°",
        "ĳ"
      ],
      [
        "çĽ",
        "ĺ"
      ],
      [
        "ä½¿çĶ¨",
        "æĥħåĨµ"
      ],
      [
        "å¹",
        "¶"
      ],
      [
        "åį",
        "ıè®"
      ],
      [
        "å¤ļ",
        "ä¸ª"
      ],
      [
        "è½",
        "½"
      ],
      [
        "åĩ",
        "º"
      ],
      [
        "ç«",
        "¯"
      ],
      [
        "è´Ł",
        "è½½"
      ],
      [
        "ä¼ł",
        "è¾ĵ"
      ],
      [
        "éķ",
        "¿"
      ],
      [
        "æĽ",
        "´"
      ],
      [
        "ç£ģ",
        "çĽĺ"
      ],
      [
        "éĥ",
        "¨"
      ],
      [
        "éĽ",
        "Ĩ"
      ],
      [
        "Ġä¼",
        "ļ"
      ],
      [
        "åįıè®",
        "®"
      ],
      [
        "D",
        "N"
      ],
      [
        "a",
        "b"
      ],
      [
        "f",
        "f"
      ],
      [
        "g",
        "in"
      ],
      [
        "l",
        "e"
      ],
      [
        "l",
        "ic"
      ],
      [
        "o",
        "p"
      ],
      [
        "½",
        "ä»¤"
      ],
      [
        "å",
        "¢"
      ],
      [
        "å",
        "Ĥ"
      ],
      [
        "å",
        "ī"
      ],
      [
        "å",
        "ĵį"
      ],
      [
        "æ",
        "µ"
      ],
      [
        "æ",
        "Ķ"
      ],
      [
        "ç",
        "Ń"
      ],
      [
        "è",
        "ĩ"
      ],
      [
        "Ġ",
        "f"
      ],
      [
        "Ġ",
        "çĶ¨äºİ"
      ],
      [
        "ĥ",
        "åº¦"
      ],
      [
        "Ĵ",
        "æŁ¥"
      ],
      [
        "åĲ",
        "¦"
      ],
      [
        "åĲ",
        "¯"
      ],
      [
        "åĲ",
        "Ī"
      ],
      [
        "Ġåı¯ä»¥",
        "çĶ¨äºİ"
      ],
      [
        "éĢļ",
        "ä¿¡"
      ],
      [
        "åĪ",
        "°"
      ],
      [
        "å¸¸",
        "è§"
      ],
      [
        "åŃĺ",
        "åĤ"
      ],
      [
        "æİ",
        "§"
      ],
      [
        "æİ",
        "¨ç"
      ],
      [
        "æİ",
        "ĴæŁ¥"
      ],
      [
        "å®",
        "ŀ"
      ],
      [
        "ç¨ĭ",
        "åºı"
      ],
      [
        "æĪ",
        "·"
      ],
      [
        "æĸ",
        "Ń"
      ],
      [
        "æľįåĬ¡",
        "åĻ¨"
      ],
      [
        "at",
        "ion"
      ],
      [
        "lo",
        "ad"
      ],
      [
        "ä¸Ģ",
        "ç§"
      ],
      [
        "åĪĨ",
        "æŀĲ"
      ],
      [
        "Ġt",
        "he"
      ],
      [
        "å¼",
        "ı"
      ],
      [
        "æŃ",
        "¢"
      ],
      [
        "æŃ",
        "£"
      ],
      [
        "çĽ",
        "ĳ"
      ],
      [
        "è§",
        "Ĥ"
      ],
      [
        "æİ¥",
        "åı£"
      ],
      [
        "åĽ",
        "ł"
      ],
      [
        "ç¡",
        "®"
      ],
      [
        "éĻ",
        "Ĳ"
      ],
      [
        "Ġn",
        "gin"
      ],
      [
        "ä¹ĭ",
        "éĹ´"
      ],
      [
        "æĮĩ",
        "æłĩ"
      ],
      [
        "åĳ",
        "½ä»¤"
      ],
      [
        "erv",
        "ic"
      ],
      [
        "ä¿Ŀ",
        "åŃĺ"
      ],
      [
        "Ġdeploy",
        "ment"
      ],
      [
        "å·",
        "¥"
      ],
      [
        "æ£Ģ",
        "æŁ¥"
      ],
      [
        "è°",
        "ĥåº¦"
      ],
      [
        "è¯·",
        "æ±Ĥ"
      ],
      [
        "DN",
        "S"
      ],
      [
        "åī",
        "į"
      ],
      [
        "çŃ",
        "ī"
      ],
      [
        "å¸¸è§",
        "ģ"
      ],
      [
        "åŃĺåĤ",
        "¨"
      ],
      [
        "æİ¨ç",
        "ĲĨ"
      ],
      [
        "ä¸Ģç§",
        "į"
      ],
      [
        "Ġngin",
        "x"
      ],
      [
        "I",
        "D"
      ],
      [
        "N",
        "V"
      ],
      [
        "U",
        "D"
      ],
      [
        "a",
        "il"
      ],
      [
        "c",
        "u"
      ],
      [
        "f",
        "ig"
      ],
      [
        "h",
        "an"
      ],
      [
        "i",
        "d"
      ],
      [
        "i",
        "p"
      ],
      [
        "k",
        "load"
      ],
      [
        "l",
        "u"
      ],
      [
        "m",
        "es"
      ],
      [
        "n",
        "d"
      ],
      [
        "o",
        "re"
      ],
      [
        "p",
        "lic"
      ],
      [
        "r",
        "t"
      ],
      [
        "s",
        "ystem"
      ],
      [
        "v",
        "er"
      ],
      [
        "¤",
        "º"
      ],
      [
        "¤",
        "æĸŃ"
      ],
      [
        "®",
        "åĬ"
      ],
      [
        "¶",
        "ä»"
      ],
      [
        "·",
        "¯"
      ],
      [
        "¹",
        "æį®"
      ],
      [
        "å",
        "±Ĥ"
      ],
      [
        "æ",
        "ģ"
      ],
      [
        "æ",
        "ĵį"
      ],
      [
        "ç",
        "Ħ"
      ],
      [
        "è",
        "¶"
      ],
      [
        "è",
        "Į"
      ],
      [
        "è",
        "·¯"
      ],
      [
        "é",
        "ģ"
      ],
      [
        "Ġ",
        "åĴĮ"
      ],
      [
        "Ġ",
        "ä¸ŃçļĦ"
      ],
      [
        "Ġ",
        "æıĲä¾Ľ"
      ],
      [
        "Ġ",
        "åĳ½ä»¤"
      ],
      [
        "ĥ",
        "åĽ"
      ],
      [
        "Ī",
        "æŃ¢"
      ],
      [
        "Ł",
        "åĲ"
      ],
      [
        "ä»",
        "£"
      ],
      [
        "ç»",
        "ĪæŃ¢"
      ],
      [
        "çĶ¨",
        "æĪ·"
      ],
      [
        "åĲ",
        "ĳ"
      ],
      [
        "å¸",
        "®åĬ"
      ],
      [
        "åĪ",
        "¤æĸŃ"
      ],
      [
        "Ġp",
        "ro"
      ],
      [
        "ç½",
        "®"
      ],
      [
        "è¯",
        "ģ"
      ],
      [
        "è¡",
        "¨ç"
      ],
      [
        "æĺ¯",
        "åĲ¦"
      ],
      [
        "éĢļå¸¸",
        "éľĢè¦ģ"
      ],
      [
        "åħ",
        "¶ä»"
      ],
      [
        "ent",
        "s"
      ],
      [
        "çİ",
        "ĩ"
      ],
      [
        "æł",
        "¹æį®"
      ],
      [
        "åĪĨ",
        "å¸ĥ"
      ],
      [
        "ll",
        "y"
      ],
      [
        "or",
        "kload"
      ],
      [
        "å¯",
        "¹"
      ],
      [
        "å¯",
        "Ł"
      ],
      [
        "å¹",
        "³"
      ],
      [
        "åĮ",
        "ħ"
      ],
      [
        "åį",
        "ķ"
      ],
      [
        "æŀ",
        "ľ"
      ],
      [
        "ĠI",
        "P"
      ],
      [
        "ac",
        "k"
      ],
      [
        "ta",
        "rt"
      ],
      [
        "åŁ",
        "º"
      ],
      [
        "åŁ",
        "ŁåĲ"
      ],
      [
        "æĢ§",
        "èĥ½"
      ],
      [
        "æ³",
        "ķ"
      ],
      [
        "éĿ",
        "¢"
      ],
      [
        "æĹł",
        "æ³ķ"
      ],
      [
        "Ġw",
        "orkload"
      ],
      [
        "éĥ¨",
        "åĪĨ"
      ],
      [
        "åĲ¯",
        "åĬ¨"
      ],
      [
        "çĽĳ",
        "æİ§"
      ],
      [
        "è§Ĥ",
        "å¯Ł"
      ],
      [
        "ç¡®",
        "è®¤"
      ],
      [
        "å¸¸è§ģ",
        "çļĦ"
      ],
      [
        "æģ",
        "¯"
      ],
      [
        "æĵį",
        "ä½ľ"
      ],
      [
        "çĦ",
        "¶"
      ],
      [
        "èĮ",
        "ĥåĽ"
      ],
      [
        "å¸®åĬ",
        "©"
      ],
      [
        "è¡¨ç",
        "¤º"
      ],
      [
        "åħ¶ä»",
        "ĸ"
      ],
      [
        "åŁŁåĲ",
        "į"
      ],
      [
        "Ġworkload",
        "s"
      ],
      [
        "èĮĥåĽ",
        "´"
      ],
      [
        "I",
        "A"
      ],
      [
        "I",
        "P"
      ],
      [
        "P",
        "od"
      ],
      [
        "T",
        "he"
      ],
      [
        "a",
        "mes"
      ],
      [
        "c",
        "r"
      ],
      [
        "e",
        "l"
      ],
      [
        "g",
        "s"
      ],
      [
        "i",
        "ll"
      ],
      [
        "l",
        "im"
      ],
      [
        "p",
        "ac"
      ],
      [
        "q",
        "u"
      ],
      [
        "t",
        "s"
      ],
      [
        "u",
        "p"
      ],
      [
        "u",
        "re"
      ],
      [
        "v",
        "i"
      ],
      [
        "¢",
        "¯"
      ],
      [
        "¦",
        "Ĥ"
      ],
      [
        "§",
        "è¡Į"
      ],
      [
        "©",
        "º"
      ],
      [
        "©",
        "çĶ¨"
      ],
      [
        "¯",
        "ä»¶"
      ],
      [
        "¿",
        "åħ"
      ],
      [
        "å",
        "¾"
      ],
      [
        "å",
        "¦Ĥ"
      ],
      [
        "æ",
        "Ŀ"
      ],
      [
        "æ",
        "¢¯"
      ],
      [
        "ç",
        "ł"
      ],
      [
        "ç",
        "©º"
      ],
      [
        "Ġ",
        "b"
      ],
      [
        "Ġ",
        "çļĦ"
      ],
      [
        "Ġ",
        "en"
      ],
      [
        "Ġ",
        "lo"
      ],
      [
        "Ġ",
        "ä¸Ń"
      ],
      [
        "Ġ",
        "èµĦæºĲ"
      ],
      [
        "Ġ",
        "HTTP"
      ],
      [
        "Ġ",
        "res"
      ],
      [
        "Ġ",
        "DNS"
      ],
      [
        "ç»",
        "ĵ"
      ],
      [
        "ç»",
        "Ń"
      ],
      [
        "çĶ",
        "Ł"
      ],
      [
        "çļĦ",
        "æķ°æį®"
      ],
      [
        "on",
        "it"
      ],
      [
        "æľ",
        "¬"
      ],
      [
        "Ġåı¯ä»¥",
        "æĬ"
      ],
      [
        "es",
        "s"
      ],
      [
        "åĪ",
        "©çĶ¨"
      ],
      [
        "Ġs",
        "ystem"
      ],
      [
        "Ġs",
        "ervic"
      ],
      [
        "å¤",
        "Ħ"
      ],
      [
        "ä½",
        "į"
      ],
      [
        "è¡",
        "¨"
      ],
      [
        "er",
        "s"
      ],
      [
        "ç½ĳ",
        "åħ³"
      ],
      [
        "ou",
        "t"
      ],
      [
        "å®",
        "ļ"
      ],
      [
        "åħ",
        "Ī"
      ],
      [
        "æľįåĬ¡",
        "çļĦ"
      ],
      [
        "at",
        "e"
      ],
      [
        "st",
        "at"
      ],
      [
        "Ġæĺ¯",
        "ä¸Ģç§į"
      ],
      [
        "Ġa",
        "nd"
      ],
      [
        "Ġt",
        "o"
      ],
      [
        "ä¹",
        "Ł"
      ],
      [
        "éľĢ",
        "æ±Ĥ"
      ],
      [
        "it",
        "y"
      ],
      [
        "åĿ",
        "ĩ"
      ],
      [
        "æĮ",
        "ģ"
      ],
      [
        "è´",
        "£"
      ],
      [
        "æıĲ",
        "é«ĺ"
      ],
      [
        "è®¡ç®Ĺ",
        "æľº"
      ],
      [
        "æī",
        "Ģ"
      ],
      [
        "æī",
        "§è¡Į"
      ],
      [
        "è½",
        "¯ä»¶"
      ],
      [
        "ĠI",
        "O"
      ],
      [
        "ä¿¡",
        "æģ¯"
      ],
      [
        "ç¡",
        "Ģ"
      ],
      [
        "ç«",
        "ĭ"
      ],
      [
        "è´Ł",
        "è´£"
      ],
      [
        "ĠéĢļå¸¸",
        "çĶ¨äºİ"
      ],
      [
        "ĠéĢļå¸¸",
        "è¡¨ç¤º"
      ],
      [
        "æķħéļľ",
        "æİĴæŁ¥"
      ],
      [
        "å½",
        "ĵ"
      ],
      [
        "æĭ",
        "¥"
      ],
      [
        "å»",
        "º"
      ],
      [
        "Ġpod",
        "s"
      ],
      [
        "Ġcon",
        "fig"
      ],
      [
        "åĩº",
        "çİ°"
      ],
      [
        "éķ¿",
        "åº¦"
      ],
      [
        "åĵį",
        "åºĶ"
      ],
      [
        "æµ",
        "ĭ"
      ],
      [
        "æŃ£",
        "å¸¸"
      ],
      [
        "éĻĲ",
        "åĪ¶"
      ],
      [
        "ID",
        "IA"
      ],
      [
        "NV",
        "IDIA"
      ],
      [
        "han",
        "g"
      ],
      [
        "system",
        "ctl"
      ],
      [
        "éģ",
        "¿åħ"
      ],
      [
        "Ġåĳ½ä»¤",
        "åı¯ä»¥"
      ],
      [
        "åŁº",
        "ç¡Ģ"
      ],
      [
        "çĦ¶",
        "åĲİ"
      ],
      [
        "ames",
        "pac"
      ],
      [
        "lim",
        "it"
      ],
      [
        "å¦Ĥ",
        "æŀľ"
      ],
      [
        "æ¢¯",
        "åº¦"
      ],
      [
        "çł",
        "ģ"
      ],
      [
        "Ġlo",
        "gs"
      ],
      [
        "åĪ©çĶ¨",
        "çİĩ"
      ],
      [
        "éģ¿åħ",
        "į"
      ],
      [
        "amespac",
        "e"
      ],
      [
        "1",
        "6"
      ],
      [
        "5",
        "0"
      ],
      [
        "B",
        "ack"
      ],
      [
        "L",
        "o"
      ],
      [
        "O",
        "M"
      ],
      [
        "O",
        "ff"
      ],
      [
        "O",
        "OM"
      ],
      [
        "S",
        "I"
      ],
      [
        "S",
        "ch"
      ],
      [
        "a",
        "g"
      ],
      [
        "a",
        "s"
      ],
      [
        "a",
        "v"
      ],
      [
        "a",
        "ra"
      ],
      [
        "b",
        "l"
      ],
      [
        "e",
        "ct"
      ],
      [
        "i",
        "s"
      ],
      [
        "n",
        "s"
      ],
      [
        "p",
        "plic"
      ],
      [
        "r",
        "l"
      ],
      [
        "r",
        "on"
      ],
      [
        "v",
        "ents"
      ],
      [
        "®",
        "µ"
      ],
      [
        "®",
        "æĶ"
      ],
      [
        "¯",
        "å¢"
      ],
      [
        "¶",
        "æ"
      ],
      [
        "¶",
        "è¿"
      ],
      [
        "å",
        "Ģ"
      ],
      [
        "æ",
        "¬"
      ],
      [
        "æ",
        "¶"
      ],
      [
        "æ",
        "Ļ"
      ],
      [
        "ç",
        "ĲĨ"
      ],
      [
        "é",
        "ħ"
      ],
      [
        "é",
        "ĥ½"
      ],
      [
        "Ġ",
        "h"
      ],
      [
        "Ġ",
        "r"
      ],
      [
        "Ġ",
        "ro"
      ],
      [
        "Ġ",
        "TCP"
      ],
      [
        "Ġ",
        "im"
      ],
      [
        "Ġ",
        "ä¸Ĭ"
      ],
      [
        "Ġ",
        "NVIDIA"
      ],
      [
        "Ġ",
        "limit"
      ],
      [
        "Ġ",
        "50"
      ],
      [
        "ĭ",
        "ä»¶"
      ],
      [
        "į",
        "ä½İ"
      ],
      [
        "į",
        "ç½®"
      ],
      [
        "ŀ",
        "åĲ"
      ],
      [
        "åı",
        "°"
      ],
      [
        "åı",
        "·"
      ],
      [
        "åı¯",
        "çĶ¨"
      ],
      [
        "åı¯",
        "éĿ"
      ],
      [
        "od",
        "e"
      ],
      [
        "åı¯ä»¥",
        "å¸®åĬ©"
      ],
      [
        "éĢ",
        "Ł"
      ],
      [
        "åº",
        "ĵ"
      ],
      [
        "åĲ",
        "ŀåĲ"
      ],
      [
        "æľ",
        "Ģ"
      ],
      [
        "Ġåı¯ä»¥",
        "è§Ĥå¯Ł"
      ],
      [
        "äº",
        "¤"
      ],
      [
        "äº",
        "§"
      ],
      [
        "äº",
        "Ĩ"
      ],
      [
        "äº",
        "Ĵ"
      ],
      [
        "äº",
        "ĭä»¶"
      ],
      [
        "åĴĮ",
        "ç½ĳç»ľ"
      ],
      [
        "åĴĮ",
        "åħ¶ä»ĸ"
      ],
      [
        "åĪ",
        "Ĺ"
      ],
      [
        "åĬ",
        "ł"
      ],
      [
        "è¯",
        "ķ"
      ],
      [
        "è¡",
        "¡"
      ],
      [
        "re",
        "e"
      ],
      [
        "æķ",
        "Ī"
      ],
      [
        "éĢļå¸¸",
        "çĶ±"
      ],
      [
        "åħ",
        "¥"
      ],
      [
        "ç½ĳç»ľ",
        "æİ¥åı£"
      ],
      [
        "æĸ",
        "°"
      ],
      [
        "æĸ",
        "¹"
      ],
      [
        "æĸ",
        "½"
      ],
      [
        "at",
        "ch"
      ],
      [
        "ä¿",
        "®æĶ"
      ],
      [
        "st",
        "er"
      ],
      [
        "çİ",
        "¯å¢"
      ],
      [
        "ĠP",
        "ro"
      ],
      [
        "ĠP",
        "ara"
      ],
      [
        "ä¸Ń",
        "å¸¸è§ģçļĦ"
      ],
      [
        "æł",
        "¸"
      ],
      [
        "Ġc",
        "hang"
      ],
      [
        "ä¸į",
        "è¶"
      ],
      [
        "ll",
        "el"
      ],
      [
        "å°",
        "½"
      ],
      [
        "å°",
        "ı"
      ],
      [
        "Ġa",
        "v"
      ],
      [
        "Ġt",
        "ra"
      ],
      [
        "ed",
        "ul"
      ],
      [
        "æŃ",
        "¥"
      ],
      [
        "çĽ",
        "´"
      ],
      [
        "è¿ĩ",
        "ç¨ĭ"
      ],
      [
        "èĢ",
        "Ĺ"
      ],
      [
        "Ġre",
        "al"
      ],
      [
        "Ġre",
        "qu"
      ],
      [
        "è®¾",
        "æĸ½"
      ],
      [
        "å¤ļ",
        "å°ĳ"
      ],
      [
        "åĩ",
        "Ĩ"
      ],
      [
        "éĻ",
        "įä½İ"
      ],
      [
        "åĲİ",
        "ç«¯"
      ],
      [
        "åºĶçĶ¨",
        "ç¨ĭåºı"
      ],
      [
        "éĩį",
        "è¦ģ"
      ],
      [
        "æĸĩä»¶",
        "ç³»ç»Ł"
      ],
      [
        "Ġm",
        "onit"
      ],
      [
        "il",
        "ity"
      ],
      [
        "éĺ",
        "Ł"
      ],
      [
        "éĺ",
        "¶æ"
      ],
      [
        "ç»Ħ",
        "æĪĲ"
      ],
      [
        "è¿ŀæİ¥",
        "çļĦ"
      ],
      [
        "å»",
        "¶è¿"
      ],
      [
        "ç¼",
        "©"
      ],
      [
        "è´Łè½½",
        "åĿĩ"
      ],
      [
        "ä¼łè¾ĵ",
        "åįıè®®"
      ],
      [
        "ab",
        "ility"
      ],
      [
        "æĶ",
        "¶"
      ],
      [
        "èĩ",
        "ª"
      ],
      [
        "èĩ",
        "´"
      ],
      [
        "åĪ°",
        "å¤ļä¸ª"
      ],
      [
        "ation",
        "s"
      ],
      [
        "åĽł",
        "ä¸º"
      ],
      [
        "å·¥",
        "ä½ľ"
      ],
      [
        "UD",
        "P"
      ],
      [
        "lu",
        "ster"
      ],
      [
        "ore",
        "d"
      ],
      [
        "è·¯",
        "çĶ±"
      ],
      [
        "åĪĨå¸ĥ",
        "å¼ı"
      ],
      [
        "å¹³",
        "åı°"
      ],
      [
        "éĿ¢",
        "åĲĳ"
      ],
      [
        "çĽĳæİ§",
        "æĮĩæłĩ"
      ],
      [
        "vi",
        "ron"
      ],
      [
        "ç©º",
        "éĹ´"
      ],
      [
        "Ġen",
        "viron"
      ],
      [
        "Ġres",
        "tart"
      ],
      [
        "çļĦæķ°æį®",
        "ä¼łè¾ĵ"
      ],
      [
        "Ġåı¯ä»¥æĬ",
        "Ĭ"
      ],
      [
        "å¤Ħ",
        "çĲĨ"
      ],
      [
        "æĮģ",
        "ç»Ń"
      ],
      [
        "æīĢ",
        "æľī"
      ],
      [
        "å½ĵ",
        "åīį"
      ],
      [
        "æĭ¥",
        "æľī"
      ],
      [
        "å»º",
        "ç«ĭ"
      ],
      [
        "æµĭ",
        "è¯ķ"
      ],
      [
        "åŁºç¡Ģ",
        "è®¾æĸ½"
      ],
      [
        "Back",
        "Off"
      ],
      [
        "Sch",
        "edul"
      ],
      [
        "bl",
        "es"
      ],
      [
        "pplic",
        "ations"
      ],
      [
        "åĢ",
        "¼"
      ],
      [
        "éħ",
        "įç½®"
      ],
      [
        "Ġro",
        "ll"
      ],
      [
        "Ġim",
        "p"
      ],
      [
        "åı¯éĿ",
        "ł"
      ],
      [
        "åĲŀåĲ",
        "Ĳ"
      ],
      [
        "ä¿®æĶ",
        "¹"
      ],
      [
        "çİ¯å¢",
        "ĥ"
      ],
      [
        "ĠPro",
        "be"
      ],
      [
        "ĠPara",
        "llel"
      ],
      [
        "ä¸įè¶",
        "³"
      ],
      [
        "éĺ¶æ",
        "®µ"
      ],
      [
        "å»¶è¿",
        "Ł"
      ],
      [
        "è´Łè½½åĿĩ",
        "è¡¡"
      ],
      [
        "Ġenviron",
        "ment"
      ],
      [
        "Schedul",
        "er"
      ],
      [
        "3",
        "2"
      ],
      [
        "B",
        "F"
      ],
      [
        "C",
        "on"
      ],
      [
        "E",
        "vents"
      ],
      [
        "F",
        "P"
      ],
      [
        "I",
        "n"
      ],
      [
        "K",
        "V"
      ],
      [
        "K",
        "ill"
      ],
      [
        "L",
        "L"
      ],
      [
        "N",
        "T"
      ],
      [
        "N",
        "amespace"
      ],
      [
        "S",
        "et"
      ],
      [
        "S",
        "ervic"
      ],
      [
        "V",
        "o"
      ],
      [
        "a",
        "p"
      ],
      [
        "a",
        "ct"
      ],
      [
        "a",
        "re"
      ],
      [
        "a",
        "em"
      ],
      [
        "a",
        "lly"
      ],
      [
        "c",
        "e"
      ],
      [
        "c",
        "er"
      ],
      [
        "c",
        "id"
      ],
      [
        "d",
        "f"
      ],
      [
        "d",
        "u"
      ],
      [
        "d",
        "ing"
      ],
      [
        "e",
        "c"
      ],
      [
        "e",
        "cr"
      ],
      [
        "f",
        "u"
      ],
      [
        "f",
        "y"
      ],
      [
        "f",
        "in"
      ],
      [
        "f",
        "or"
      ],
      [
        "f",
        "ra"
      ],
      [
        "f",
        "ul"
      ],
      [
        "f",
        "ore"
      ],
      [
        "h",
        "Lo"
      ],
      [
        "i",
        "v"
      ],
      [
        "i",
        "z"
      ],
      [
        "i",
        "be"
      ],
      [
        "i",
        "re"
      ],
      [
        "i",
        "st"
      ],
      [
        "i",
        "fy"
      ],
      [
        "j",
        "ou"
      ],
      [
        "k",
        "ill"
      ],
      [
        "m",
        "e"
      ],
      [
        "m",
        "p"
      ],
      [
        "o",
        "f"
      ],
      [
        "r",
        "i"
      ],
      [
        "r",
        "ic"
      ],
      [
        "r",
        "it"
      ],
      [
        "s",
        "s"
      ],
      [
        "s",
        "et"
      ],
      [
        "s",
        "hLo"
      ],
      [
        "t",
        "inu"
      ],
      [
        "t",
        "op"
      ],
      [
        "¢",
        "«"
      ],
      [
        "£",
        "æŀĲ"
      ],
      [
        "¥",
        "éĩį"
      ],
      [
        "§",
        "ĭ"
      ],
      [
        "«",
        "å¢"
      ],
      [
        "±",
        "¡"
      ],
      [
        "±",
        "ŀ"
      ],
      [
        "±",
        "åĵį"
      ],
      [
        "²",
        "¾"
      ],
      [
        "²",
        "ç"
      ],
      [
        "³",
        "å®ļ"
      ],
      [
        "¸",
        "¸"
      ],
      [
        "º",
        "å°ĳ"
      ],
      [
        "»",
        "ĺ"
      ],
      [
        "»",
        "åĬ¡"
      ],
      [
        "¼",
        "èĩ´"
      ],
      [
        "¿",
        "æ³"
      ],
      [
        "å",
        "ģ"
      ],
      [
        "å",
        "İ"
      ],
      [
        "å",
        "§ĭ"
      ],
      [
        "å",
        "±ŀ"
      ],
      [
        "æ",
        "¯"
      ],
      [
        "æ",
        "Ħ"
      ],
      [
        "æ",
        "ļ"
      ],
      [
        "æ",
        "¸¸"
      ],
      [
        "ç",
        "ī"
      ],
      [
        "ç",
        "ĭ"
      ],
      [
        "ç",
        "²¾"
      ],
      [
        "è",
        "ģ"
      ],
      [
        "è",
        "İ"
      ],
      [
        "è",
        "Ļ"
      ],
      [
        "è",
        "¢«"
      ],
      [
        "è",
        "±¡"
      ],
      [
        "é",
        "Ķ"
      ],
      [
        "é",
        "»ĺ"
      ],
      [
        "Ġ",
        "T"
      ],
      [
        "Ġ",
        "e"
      ],
      [
        "Ġ",
        "æĹ¶"
      ],
      [
        "Ġ",
        "è®¾"
      ],
      [
        "Ġ",
        "çĬ¶æĢģ"
      ],
      [
        "Ġ",
        "éĩį"
      ],
      [
        "Ġ",
        "åľ¨"
      ],
      [
        "Ġ",
        "Linux"
      ],
      [
        "Ġ",
        "æķħéļľ"
      ],
      [
        "Ġ",
        "ä½¿çĶ¨æĥħåĨµ"
      ],
      [
        "Ġ",
        "ä¹ĭéĹ´"
      ],
      [
        "Ġ",
        "è¯·æ±Ĥ"
      ],
      [
        "Ġ",
        "ä½į"
      ],
      [
        "Ġ",
        "ä¹Ł"
      ],
      [
        "Ġ",
        "è´Łè´£"
      ],
      [
        "Ġ",
        "åĪ©çĶ¨çİĩ"
      ],
      [
        "Ġ",
        "OOM"
      ],
      [
        "Ġ",
        "is"
      ],
      [
        "Ġ",
        "éĥ½"
      ],
      [
        "Ġ",
        "Scheduler"
      ],
      [
        "Ģ",
        "æľ"
      ],
      [
        "Ģ",
        "åĩº"
      ],
      [
        "ģ",
        "«å¢"
      ],
      [
        "ĥ",
        "éĻĲ"
      ],
      [
        "ı",
        "è¿"
      ],
      [
        "ı",
        "å°ĳ"
      ],
      [
        "ı",
        "æĦ"
      ],
      [
        "ĵ",
        "åŃĺ"
      ],
      [
        "ĺ",
        "åĮĸ"
      ],
      [
        "Ľ",
        "ä½¿çĶ¨"
      ],
      [
        "Ŀ",
        "èµ"
      ],
      [
        "ä»",
        "İ"
      ],
      [
        "ä»",
        "»åĬ¡"
      ],
      [
        "ä¸",
        "¢"
      ],
      [
        "ä¸",
        "ī"
      ],
      [
        "ä¸",
        "İ"
      ],
      [
        "ä¸",
        "¥éĩį"
      ],
      [
        "ç»",
        "´"
      ],
      [
        "åı¯ä»¥",
        "çĶ¨äºİ"
      ],
      [
        "çļĦ",
        "è¿Ľç¨ĭ"
      ],
      [
        "çļĦ",
        "æĸĩä»¶"
      ],
      [
        "çļĦ",
        "æłĩ"
      ],
      [
        "çļĦ",
        "å¼Ģ"
      ],
      [
        "çļĦ",
        "è®¾å¤ĩ"
      ],
      [
        "çļĦ",
        "è®¿éĹ®"
      ],
      [
        "è¿",
        "ĺ"
      ],
      [
        "è®",
        "©"
      ],
      [
        "éĢ",
        "ģ"
      ],
      [
        "éĢ",
        "Ĥ"
      ],
      [
        "éĢ",
        "Ĳ"
      ],
      [
        "éĢ",
        "Ģåĩº"
      ],
      [
        "be",
        "s"
      ],
      [
        "æľ",
        "Ł"
      ],
      [
        "Ġåı¯ä»¥",
        "éĢļè¿ĩ"
      ],
      [
        "Ġåı¯ä»¥",
        "ä¿ĿåŃĺ"
      ],
      [
        "Ġåı¯ä»¥",
        "æł¹æį®"
      ],
      [
        "Ġåı¯ä»¥",
        "å¸®åĬ©"
      ],
      [
        "Ġåı¯ä»¥",
        "éĻįä½İ"
      ],
      [
        "Ġåı¯ä»¥",
        "ä¿®æĶ¹"
      ],
      [
        "in",
        "s"
      ],
      [
        "in",
        "ess"
      ],
      [
        "es",
        "t"
      ],
      [
        "es",
        "cr"
      ],
      [
        "es",
        "ts"
      ],
      [
        "éĢļ",
        "æĢ§"
      ],
      [
        "åĴĮ",
        "ä¼"
      ],
      [
        "åĴĮ",
        "ç®¡çĲĨ"
      ],
      [
        "åĴĮ",
        "äºĭä»¶"
      ],
      [
        "åĴĮ",
        "çĽĳæİ§æĮĩæłĩ"
      ],
      [
        "åĬ",
        "Ľ"
      ],
      [
        "Ġp",
        "o"
      ],
      [
        "Ġs",
        "iz"
      ],
      [
        "å¤",
        "ĸ"
      ],
      [
        "et",
        "ric"
      ],
      [
        "è¯",
        "¢"
      ],
      [
        "æŁ¥",
        "è¯¢"
      ],
      [
        "æĺ¯",
        "ä¸Ģç§į"
      ],
      [
        "ou",
        "s"
      ],
      [
        "æķ",
        "ıæĦ"
      ],
      [
        "en",
        "ess"
      ],
      [
        "ç³»ç»Ł",
        "æĢ§èĥ½"
      ],
      [
        "åĨ",
        "į"
      ],
      [
        "éĢļå¸¸",
        "æĭ¥æľī"
      ],
      [
        "åħ",
        "±"
      ],
      [
        "ç½ĳç»ľ",
        "éĹ®é¢ĺ"
      ],
      [
        "ç½ĳç»ľ",
        "åĴĮåħ¶ä»ĸ"
      ],
      [
        "åĻ¨",
        "çĬ¶æĢģ"
      ],
      [
        "åľ",
        "º"
      ],
      [
        "è¡Į",
        "è®¡ç®Ĺ"
      ],
      [
        "at",
        "us"
      ],
      [
        "æį",
        "¢"
      ],
      [
        "ent",
        "Vo"
      ],
      [
        "Ġæĺ¯",
        "ä¸Ģä¸ª"
      ],
      [
        "Ġæĺ¯",
        "å¸¸è§ģçļĦ"
      ],
      [
        "æŁ¥çľĭ",
        "ç³»ç»Ł"
      ],
      [
        "ic",
        "al"
      ],
      [
        "Ġc",
        "luster"
      ],
      [
        "Ġc",
        "are"
      ],
      [
        "Ġc",
        "rit"
      ],
      [
        "ä¸į",
        "èĥ½"
      ],
      [
        "ä¸į",
        "éľĢè¦ģ"
      ],
      [
        "åĪĨ",
        "åıĳ"
      ],
      [
        "å°",
        "±"
      ],
      [
        "å°",
        "Ĩ"
      ],
      [
        "æı",
        "ıè¿"
      ],
      [
        "Ġa",
        "pplications"
      ],
      [
        "Ġt",
        "h"
      ],
      [
        "æķ°",
        "åĢ¼"
      ],
      [
        "åĨħ",
        "æł¸"
      ],
      [
        "rn",
        "al"
      ],
      [
        "å¼",
        "Ĥ"
      ],
      [
        "æŃ",
        "¤"
      ],
      [
        "è§",
        "Ħ"
      ],
      [
        "è§",
        "£æŀĲ"
      ],
      [
        "è¿ĩ",
        "ä½İ"
      ],
      [
        "or",
        "t"
      ],
      [
        "or",
        "ing"
      ],
      [
        "Ġåı¯ä»¥æŁ¥çľĭ",
        "ç³»ç»Ł"
      ],
      [
        "æĹ¶",
        "éĹ´"
      ],
      [
        "åĨħåŃĺ",
        "ä½¿çĶ¨æĥħåĨµ"
      ],
      [
        "åĨħåŃĺ",
        "éĻĲåĪ¶"
      ],
      [
        "ra",
        "shLo"
      ],
      [
        "å¯",
        "Ĩ"
      ],
      [
        "å¯",
        "¼èĩ´"
      ],
      [
        "Ġd",
        "escr"
      ],
      [
        "å®¹åĻ¨",
        "æĹ¥å¿Ĺ"
      ],
      [
        "å®¹åĻ¨",
        "åı¯èĥ½"
      ],
      [
        "å¹",
        "¿æ³"
      ],
      [
        "Ġre",
        "c"
      ],
      [
        "æķ°æį®",
        "åĮħ"
      ],
      [
        "æķ°æį®",
        "åºĵ"
      ],
      [
        "ä¾",
        "ĭ"
      ],
      [
        "ä¾",
        "Ŀèµ"
      ],
      [
        "æī",
        "ĭ"
      ],
      [
        "è½",
        "¬"
      ],
      [
        "ĠC",
        "ac"
      ],
      [
        "ĠC",
        "rashLo"
      ],
      [
        "åºĶè¯¥",
        "éĢļè¿ĩ"
      ],
      [
        "åºĶè¯¥",
        "ç¡®è®¤"
      ],
      [
        "åºĶè¯¥",
        "åħĪ"
      ],
      [
        "åĩ",
        "ıå°ĳ"
      ],
      [
        "åıĳ",
        "å¸ĥ"
      ],
      [
        "åıĳ",
        "éĢģ"
      ],
      [
        "ä¿¡",
        "åı·"
      ],
      [
        "çİ°",
        "ä»£"
      ],
      [
        "çİ°",
        "è±¡"
      ],
      [
        "çĬ¶æĢģ",
        "åºĶçĶ¨"
      ],
      [
        "è¾",
        "ĥ"
      ],
      [
        "é«ĺ",
        "éĢŁ"
      ],
      [
        "ta",
        "bles"
      ],
      [
        "ta",
        "ins"
      ],
      [
        "Ġn",
        "amespace"
      ],
      [
        "Ġin",
        "cid"
      ],
      [
        "è¿ŀ",
        "éĢļæĢ§"
      ],
      [
        "éĢļè¿ĩ",
        "ç½ĳç»ľ"
      ],
      [
        "åºĶçĶ¨",
        "å±Ĥ"
      ],
      [
        "ä¸ŃçļĦ",
        "è®¾å¤ĩ"
      ],
      [
        "éĩį",
        "æĸ°"
      ],
      [
        "ä¹ĭ",
        "åīį"
      ],
      [
        "æ¨¡åŀĭ",
        "æİ¨çĲĨ"
      ],
      [
        "æ¨¡åŀĭ",
        "å±Ĥ"
      ],
      [
        "æĸĩä»¶",
        "æĿ"
      ],
      [
        "ad",
        "iness"
      ],
      [
        "æ³",
        "¨"
      ],
      [
        "æĬ",
        "Ģæľ"
      ],
      [
        "Ġm",
        "etric"
      ],
      [
        "æĹł",
        "æķĪ"
      ],
      [
        "æĮĩ",
        "å®ļ"
      ],
      [
        "è¿Ĳè¡Į",
        "ä¸Ģä¸ª"
      ],
      [
        "å½",
        "ķ"
      ],
      [
        "å½",
        "±åĵį"
      ],
      [
        "åĳ",
        "Ĭ"
      ],
      [
        "æĭ",
        "Ł"
      ],
      [
        "éĺ",
        "²ç"
      ],
      [
        "Ġus",
        "er"
      ],
      [
        "Ġus",
        "ed"
      ],
      [
        "Ġåľ°åĿĢ",
        "éķ¿åº¦"
      ],
      [
        "ä¸Ĭ",
        "æ¸¸"
      ],
      [
        "ç»Ħ",
        "ä»¶"
      ],
      [
        "åı¯èĥ½",
        "å¯¼èĩ´"
      ],
      [
        "å¤§",
        "çļĦ"
      ],
      [
        "åħ³",
        "æ³¨"
      ],
      [
        "ä¸Ģä¸ª",
        "å"
      ],
      [
        "éĩı",
        "åĮĸ"
      ],
      [
        "å¼Ģ",
        "åıĳ"
      ],
      [
        "å¼Ģ",
        "å§ĭ"
      ],
      [
        "res",
        "s"
      ],
      [
        "ç¼",
        "ºå°ĳ"
      ],
      [
        "ç¼",
        "ĵåŃĺ"
      ],
      [
        "Ġst",
        "atus"
      ],
      [
        "æĺ¾åŃĺ",
        "ä½¿çĶ¨"
      ],
      [
        "Ġcon",
        "tains"
      ],
      [
        "å¹¶",
        "è¡Įè®¡ç®Ĺ"
      ],
      [
        "ç«¯",
        "åı£"
      ],
      [
        "æĽ´",
        "å¤§çļĦ"
      ],
      [
        "ç£ģçĽĺ",
        "ç©ºéĹ´"
      ],
      [
        "éĽĨ",
        "æĪĲ"
      ],
      [
        "Ġä¼ļ",
        "åľ¨"
      ],
      [
        "ab",
        "le"
      ],
      [
        "ff",
        "ic"
      ],
      [
        "op",
        "BackOff"
      ],
      [
        "Ġf",
        "ail"
      ],
      [
        "Ġf",
        "ree"
      ],
      [
        "Ġåı¯ä»¥çĶ¨äºİ",
        "æµĭè¯ķ"
      ],
      [
        "å®ŀ",
        "æĹ¶"
      ],
      [
        "å®ŀ",
        "ä¾ĭ"
      ],
      [
        "æŃ£",
        "åľ¨"
      ],
      [
        "åĽł",
        "æŃ¤"
      ],
      [
        "ä¹ĭéĹ´",
        "è¿Ľè¡Į"
      ],
      [
        "å·¥",
        "ç¨ĭ"
      ],
      [
        "è¯·æ±Ĥ",
        "åĪĨåıĳ"
      ],
      [
        "çŃī",
        "ç³»ç»Ł"
      ],
      [
        "åŃĺåĤ¨",
        "èµĦæºĲ"
      ],
      [
        "UD",
        "A"
      ],
      [
        "ail",
        "ability"
      ],
      [
        "cu",
        "rl"
      ],
      [
        "lu",
        "me"
      ],
      [
        "plic",
        "as"
      ],
      [
        "è¶",
        "ħ"
      ],
      [
        "è·¯",
        "å¾"
      ],
      [
        "ĠæıĲä¾Ľ",
        "çļĦ"
      ],
      [
        "ä»£",
        "çłģ"
      ],
      [
        "çĶ¨æĪ·",
        "ç»Ħ"
      ],
      [
        "åĪ¤æĸŃ",
        "ç³»ç»Ł"
      ],
      [
        "Ġpro",
        "bes"
      ],
      [
        "ç½®",
        "è¿ĩä½İ"
      ],
      [
        "æĺ¯åĲ¦",
        "æŃ£å¸¸"
      ],
      [
        "åĲ¯åĬ¨",
        "æľįåĬ¡"
      ],
      [
        "æĵįä½ľ",
        "ç³»ç»Ł"
      ],
      [
        "IP",
        "v"
      ],
      [
        "Ġb",
        "atch"
      ],
      [
        "Ġä¸Ń",
        "çĶ¨äºİ"
      ],
      [
        "ç»ĵ",
        "åĲĪ"
      ],
      [
        "çĶŁ",
        "äº§"
      ],
      [
        "æľ¬",
        "åľ°"
      ],
      [
        "Ġservic",
        "e"
      ],
      [
        "Ġservic",
        "es"
      ],
      [
        "ers",
        "ist"
      ],
      [
        "out",
        "e"
      ],
      [
        "ate",
        "ful"
      ],
      [
        "Ġæĺ¯ä¸Ģç§į",
        "éĿ¢åĲĳ"
      ],
      [
        "è½¯ä»¶",
        "ç³»ç»Ł"
      ],
      [
        "ĠéĢļå¸¸è¡¨ç¤º",
        "ç½ĳåħ³"
      ],
      [
        "æķħéļľæİĴæŁ¥",
        "åºĶè¯¥"
      ],
      [
        "Ġconfig",
        "ure"
      ],
      [
        "Ġåĳ½ä»¤åı¯ä»¥",
        "æŁ¥çľĭç³»ç»Ł"
      ],
      [
        "çĦ¶åĲİ",
        "æ£ĢæŁ¥"
      ],
      [
        "æ¢¯åº¦",
        "åĴĮä¼"
      ],
      [
        "SI",
        "G"
      ],
      [
        "ag",
        "e"
      ],
      [
        "av",
        "e"
      ],
      [
        "ect",
        "ed"
      ],
      [
        "æ¬",
        "¡"
      ],
      [
        "æ¶",
        "Ī"
      ],
      [
        "Ġh",
        "ave"
      ],
      [
        "Ġr",
        "u"
      ],
      [
        "äºĴ",
        "èģ"
      ],
      [
        "æĸ¹",
        "å¼ı"
      ],
      [
        "Ġchang",
        "es"
      ],
      [
        "Ġav",
        "ailability"
      ],
      [
        "Ġtra",
        "ffic"
      ],
      [
        "çĽ´",
        "æİ¥"
      ],
      [
        "èĢĹ",
        "å°½"
      ],
      [
        "Ġrequ",
        "ire"
      ],
      [
        "å¤ļå°ĳ",
        "èµĦæºĲ"
      ],
      [
        "åĩĨ",
        "æİ¥åı£"
      ],
      [
        "Ġmonit",
        "ored"
      ],
      [
        "éĺŁ",
        "åĪĹ"
      ],
      [
        "è¿ŀæİ¥çļĦ",
        "ä¼łè¾ĵåįıè®®"
      ],
      [
        "ç¼©",
        "å°ı"
      ],
      [
        "æĶ¶",
        "éĽĨ"
      ],
      [
        "èĩª",
        "åĬ¨"
      ],
      [
        "åĪ°å¤ļä¸ª",
        "åĲİç«¯"
      ],
      [
        "è·¯çĶ±",
        "è¡¨"
      ],
      [
        "åĪĨå¸ĥå¼ı",
        "ç³»ç»Ł"
      ],
      [
        "å»ºç«ĭ",
        "è¿ŀæİ¥"
      ],
      [
        "Ġroll",
        "out"
      ],
      [
        "Ġimp",
        "act"
      ],
      [
        "åĲŀåĲĲ",
        "éĩı"
      ],
      [
        "è´Łè½½åĿĩè¡¡",
        "åĻ¨"
      ],
      [
        "Servic",
        "e"
      ],
      [
        "aem",
        "on"
      ],
      [
        "ecr",
        "et"
      ],
      [
        "fu",
        "lly"
      ],
      [
        "for",
        "m"
      ],
      [
        "iv",
        "eness"
      ],
      [
        "jou",
        "rnal"
      ],
      [
        "tinu",
        "ous"
      ],
      [
        "çĭ",
        "¬"
      ],
      [
        "ç²¾",
        "åº¦"
      ],
      [
        "èİ",
        "·"
      ],
      [
        "è¢«",
        "ç»ĪæŃ¢"
      ],
      [
        "é»ĺ",
        "è®¤"
      ],
      [
        "Ġè®¾",
        "ç½®è¿ĩä½İ"
      ],
      [
        "Ġéĩį",
        "ä¼ł"
      ],
      [
        "ģ«å¢",
        "Ļ"
      ],
      [
        "ĺåĮĸ",
        "åĻ¨çĬ¶æĢģ"
      ],
      [
        "çļĦæłĩ",
        "åĩĨæİ¥åı£"
      ],
      [
        "çļĦå¼Ģ",
        "æºĲ"
      ],
      [
        "Ġåı¯ä»¥éĻįä½İ",
        "æĺ¾åŃĺä½¿çĶ¨"
      ],
      [
        "Ġsiz",
        "e"
      ],
      [
        "æķıæĦ",
        "Ł"
      ],
      [
        "entVo",
        "lume"
      ],
      [
        "Ġcare",
        "fully"
      ],
      [
        "Ġcrit",
        "ical"
      ],
      [
        "æııè¿",
        "°"
      ],
      [
        "Ġdescr",
        "ibe"
      ],
      [
        "ä¾Ŀèµ",
        "ĸ"
      ],
      [
        "ĠCac",
        "he"
      ],
      [
        "ĠCrashLo",
        "opBackOff"
      ],
      [
        "Ġincid",
        "ents"
      ],
      [
        "åºĶçĶ¨å±Ĥ",
        "åįıè®®"
      ],
      [
        "ä¹ĭåīį",
        "åºĶè¯¥ç¡®è®¤"
      ],
      [
        "æĸĩä»¶æĿ",
        "ĥéĻĲ"
      ],
      [
        "æĬĢæľ",
        "¯"
      ],
      [
        "Ġmetric",
        "s"
      ],
      [
        "å½±åĵį",
        "èĮĥåĽ´"
      ],
      [
        "éĺ²ç",
        "ģ«å¢Ļ"
      ],
      [
        "Ġåľ°åĿĢéķ¿åº¦",
        "ä¸º"
      ],
      [
        "ä¸Ĭæ¸¸",
        "æľįåĬ¡"
      ],
      [
        "ç¼ºå°ĳ",
        "åĨħåŃĺ"
      ],
      [
        "è¯·æ±ĤåĪĨåıĳ",
        "åĪ°å¤ļä¸ªåĲİç«¯"
      ],
      [
        "è·¯å¾",
        "Ħ"
      ],
      [
        "çĶŁäº§",
        "çİ¯å¢ĥ"
      ],
      [
        "ersist",
        "entVolume"
      ],
      [
        "æ¢¯åº¦åĴĮä¼",
        "ĺåĮĸåĻ¨çĬ¶æĢģ"
      ],
      [
        "äºĴèģ",
        "Ķ"
      ],
      [
        "journal",
        "ctl"
      ]
    ]
  }
}